{"version":"1.0","truncation":null,"padding":null,"added_tokens":[{"id":0,"special":true,"content":"<unk>","single_word":false,"lstrip":false,"rstrip":false,"normalized":false}],"normalizer":{"type":"BertNormalizer","clean_text":true,"handle_chinese_chars":true,"strip_accents":null,"lowercase":true},"pre_tokenizer":{"type":"BertPreTokenizer"},"post_processor":null,"decoder":{"type":"BPEDecoder","suffix":"</w>"},"model":{"dropout":null,"unk_token":"<unk>","continuing_subword_prefix":null,"end_of_word_suffix":"</w>","fuse_unk":false,"vocab":{"<unk>":0,".":1,",":2,"t":3,"h":4,"e":5,"\"":6,"o":7,"a":8,"n":9,"d":10,"i":11,"f":12,"w":13,"s":14,"y":15,"u":16,"r":17,"'":18,"?":19,"m":20,"b":21,"-":22,"v":23,"p":24,"c":25,"l":26,"k":27,"j":28,"!":29,"g":30,"*":31,";":32,":":33,"x":34,"q":35,"z":36,")":37,"(":38,"1":39,"/":40,"_":41,"2":42,"3":43,"4":44,"~":45,"5":46,"#":47,"0":48,"6":49,"7":50,"$":51,">":52,"9":53,"8":54,"[":55,"]":56,"<":57,"&":58,"%":59,"¨":60,"`":61,"é":62,"»":63,"«":64,"=":65,"•":66,"@":67,"+":68,"©":69,"¡":70,"{":71,"}":72,"ª":73,"ñ":74,"ï":75,"‖":76,"ç":77,"í":78,"^":79,"£":80,"§":81,"♥":82,"−":83,"à":84,"|":85,"°":86,"¦":87,"ł":88,"ĩ":89,"ü":90,"®":91,"ù":92,"á":93,"â":94,"ó":95,"è":96,"∞":97,"ë":98,"ä":99,"♪":100,"ò":101,"ω":102,"▪":103,"½":104,"ǒ":105,"‡":106,"ê":107,"◊":108,"►":109,"۞":110,"ú":111,"€":112,"æ":113,"î":114,"↕":115,"ô":116,"ē":117,"ǐ":118,"♫":119,"�":120,"":121,"™":122,"ř":123,"ā":124,"·":125,"¿":126,"\\":127,"─":128,"":129,"":130,"∙":131,"ॐ":132,"ö":133,"ø":134,"":135,"":136,"●":137,"­":138,"■":139,"":140,"†":141,"å":142,"ō":143,"ã":144,"¤":145,"⠔":146,"":147,"н":148,"":149,"⚔":150,"ă":151,"û":152,"º":153,"♦":154,"ĝ":155,"¹":156,"═":157,"":158,"¾":159,"ì":160,"☼":161,"ș":162,"¼":163,"☺":164,"đ":165,"ą":166,"ǽ":167,"╦":168,"":169,"¬":170,"ī":171,"​":172,"œ":173,"¢":174,"ǎ":175,"š":176,"ʻ":177,"ν":178,"α":179,"":180,"я":181,"б":182,"й":183,"τ":184,"ο":185,"ε":186,"ί":187,"ι":188,"δ":189,"":190,"":191,"‐":192,"с":193,"":194,"þ":195,"κ":196,"‑":197,"‒":198,"к":199,"":200,"σ":201,"č":202,"":203,"υ":204,"ό":205,"":206,"":207,"ß":208,"е":209,"т":210,"μ":211,"π":212,"ρ":213,"έ":214,"в":215,"ş":216,"о":217,"ð":218,"а":219,"ς":220,"р":221,"м":222,"у":223,"ή":224,"ά":225,"и":226,"д":227,"":228,"":229,"λ":230,"л":231,"γ":232,"¯":233,"":234,"":235,"":236,"":237,"":238,".</w>":239,",</w>":240,"t</w>":241,"h</w>":242,"e</w>":243,"\"</w>":244,"o</w>":245,"a</w>":246,"n</w>":247,"d</w>":248,"i</w>":249,"f</w>":250,"w</w>":251,"s</w>":252,"y</w>":253,"u</w>":254,"r</w>":255,"'</w>":256,"?</w>":257,"m</w>":258,"b</w>":259,"-</w>":260,"v</w>":261,"p</w>":262,"c</w>":263,"l</w>":264,"k</w>":265,"j</w>":266,"!</w>":267,"g</w>":268,"*</w>":269,";</w>":270,":</w>":271,"x</w>":272,"q</w>":273,"z</w>":274,")</w>":275,"(</w>":276,"1</w>":277,"/</w>":278,"_</w>":279,"2</w>":280,"3</w>":281,"4</w>":282,"~</w>":283,"5</w>":284,"#</w>":285,"0</w>":286,"6</w>":287,"7</w>":288,"$</w>":289,"></w>":290,"9</w>":291,"8</w>":292,"[</w>":293,"]</w>":294,"<</w>":295,"&</w>":296,"%</w>":297,"¨</w>":298,"`</w>":299,"é</w>":300,"»</w>":301,"«</w>":302,"=</w>":303,"•</w>":304,"@</w>":305,"+</w>":306,"©</w>":307,"¡</w>":308,"{</w>":309,"}</w>":310,"ª</w>":311,"ñ</w>":312,"ï</w>":313,"‖</w>":314,"ç</w>":315,"í</w>":316,"^</w>":317,"£</w>":318,"§</w>":319,"♥</w>":320,"−</w>":321,"à</w>":322,"|</w>":323,"°</w>":324,"¦</w>":325,"ł</w>":326,"ĩ</w>":327,"ü</w>":328,"®</w>":329,"ù</w>":330,"á</w>":331,"â</w>":332,"ó</w>":333,"è</w>":334,"∞</w>":335,"ë</w>":336,"ä</w>":337,"♪</w>":338,"ò</w>":339,"ω</w>":340,"▪</w>":341,"½</w>":342,"ǒ</w>":343,"‡</w>":344,"ê</w>":345,"◊</w>":346,"►</w>":347,"۞</w>":348,"ú</w>":349,"€</w>":350,"æ</w>":351,"î</w>":352,"↕</w>":353,"ô</w>":354,"ē</w>":355,"ǐ</w>":356,"♫</w>":357,"�</w>":358,"</w>":359,"™</w>":360,"ř</w>":361,"ā</w>":362,"·</w>":363,"¿</w>":364,"\\</w>":365,"─</w>":366,"</w>":367,"</w>":368,"∙</w>":369,"ॐ</w>":370,"ö</w>":371,"ø</w>":372,"</w>":373,"</w>":374,"●</w>":375,"­</w>":376,"■</w>":377,"</w>":378,"†</w>":379,"å</w>":380,"ō</w>":381,"ã</w>":382,"¤</w>":383,"⠔</w>":384,"</w>":385,"н</w>":386,"</w>":387,"⚔</w>":388,"ă</w>":389,"û</w>":390,"º</w>":391,"♦</w>":392,"ĝ</w>":393,"¹</w>":394,"═</w>":395,"</w>":396,"¾</w>":397,"ì</w>":398,"☼</w>":399,"ș</w>":400,"¼</w>":401,"☺</w>":402,"đ</w>":403,"ą</w>":404,"ǽ</w>":405,"╦</w>":406,"</w>":407,"¬</w>":408,"ī</w>":409,"​</w>":410,"œ</w>":411,"¢</w>":412,"ǎ</w>":413,"š</w>":414,"ʻ</w>":415,"ν</w>":416,"α</w>":417,"</w>":418,"я</w>":419,"б</w>":420,"й</w>":421,"τ</w>":422,"ο</w>":423,"ε</w>":424,"ί</w>":425,"ι</w>":426,"δ</w>":427,"</w>":428,"</w>":429,"‐</w>":430,"с</w>":431,"</w>":432,"þ</w>":433,"κ</w>":434,"‑</w>":435,"‒</w>":436,"к</w>":437,"</w>":438,"σ</w>":439,"č</w>":440,"</w>":441,"υ</w>":442,"ό</w>":443,"</w>":444,"</w>":445,"ß</w>":446,"е</w>":447,"т</w>":448,"μ</w>":449,"π</w>":450,"ρ</w>":451,"έ</w>":452,"в</w>":453,"ş</w>":454,"о</w>":455,"ð</w>":456,"а</w>":457,"ς</w>":458,"р</w>":459,"м</w>":460,"у</w>":461,"ή</w>":462,"ά</w>":463,"и</w>":464,"д</w>":465,"</w>":466,"</w>":467,"λ</w>":468,"л</w>":469,"γ</w>":470,"¯</w>":471,"</w>":472,"</w>":473,"</w>":474,"</w>":475,"</w>":476,"th":477,"in":478,"ed</w>":479,"an":480,"the</w>":481,"ou":482,"er</w>":483,"ing</w>":484,"to</w>":485,"er":486,"he</w>":487,"and</w>":488,"ar":489,"hi":490,"at</w>":491,"re":492,"wa":493,"on":494,"st":495,"en":496,"ha":497,"of</w>":498,"or":499,"in</w>":500,"al":501,"it":502,"en</w>":503,"on</w>":504,"el":505,"ro":506,"it</w>":507,"ac":508,"was</w>":509,"me</w>":510,"yo":511,"you</w>":512,"her</w>":513,"es</w>":514,"ly</w>":515,"no":516,"at":517,"lo":518,"li":519,"she</w>":520,"wh":521,"or</w>":522,"st</w>":523,"his</w>":524,"that</w>":525,"ea":526,"ve</w>":527,"be":528,"ri":529,"ld</w>":530,"an</w>":531,"gh":532,"ere</w>":533,"the":534,"'s</w>":535,"ti":536,"'t</w>":537,"n't</w>":538,"id</w>":539,"sa":540,"le</w>":541,"si":542,"ur":543,"is</w>":544,"bu":545,"se</w>":546,"my</w>":547,"ho":548,"ould</w>":549,"ne":550,"out</w>":551,"le":552,"wit":553,"om":554,"il":555,"with</w>":556,"as</w>":557,"had</w>":558,"se":559,"ght</w>":560,"ke</w>":561,"for</w>":562,"un":563,"la":564,"ra":565,"one</w>":566,"ma":567,"but</w>":568,"do":569,"ab":570,"to":571,"ic":572,"ch":573,"ev":574,"him</w>":575,"sh":576,"ked</w>":577,"ca":578,"pp":579,"be</w>":580,"go":581,"sp":582,"oun":583,"ir":584,"de":585,"ther</w>":586,"do</w>":587,"co":588,"all</w>":589,"et</w>":590,"ss</w>":591,"di":592,"mo":593,"ent</w>":594,"not</w>":595,"de</w>":596,"now</w>":597,"ted</w>":598,"what</w>":599,"they</w>":600,"ag":601,"ack</w>":602,"said</w>":603,"have</w>":604,"fro":605,"we</w>":606,"ch</w>":607,"ce</w>":608,"up</w>":609,"ore</w>":610,"bo":611,"ver</w>":612,"ter</w>":613,"loo":614,"thing</w>":615,"this</w>":616,"from</w>":617,"king</w>":618,"ds</w>":619,"so</w>":620,"as":621,"our</w>":622,"su":623,"wn</w>":624,"con":625,"did</w>":626,"mi":627,"ru":628,"fe":629,"sed</w>":630,"gh</w>":631,"ta":632,"ju":633,"led</w>":634,"could</w>":635,"would</w>":636,"so":637,"way</w>":638,"ts</w>":639,"are</w>":640,"were</w>":641,"ir</w>":642,"da":643,"po":644,"if</w>":645,"em":646,"ill</w>":647,"rea":648,"like</w>":649,"ers</w>":650,"back</w>":651,"wor":652,"ear":653,"ound</w>":654,"there</w>":655,"'d</w>":656,"ded</w>":657,"ell</w>":658,"ex":659,"qu":660,"ough</w>":661,"hea":662,"th</w>":663,"no</w>":664,"ll</w>":665,"into</w>":666,"ing":667,"just</w>":668,"when</w>":669,"about</w>":670,"ati":671,"fa":672,"pu":673,"then</w>":674,"ally</w>":675,"sc":676,"lea":677,"ver":678,"al</w>":679,"mu":680,"ant</w>":681,"ace</w>":682,"fu":683,"whi":684,"yes</w>":685,"ind</w>":686,"ting</w>":687,"them</w>":688,"dy</w>":689,"com":690,"ding</w>":691,"gu":692,"tur":693,"been</w>":694,"ee":695,"for":696,"som":697,"ard</w>":698,"know</w>":699,"some":700,"op":701,"by</w>":702,"tw":703,"your</w>":704,"ter":705,"pro":706,"sel":707,"of":708,"ge</w>":709,"fi":710,"od</w>":711,"pa":712,"ec":713,"down</w>":714,"over</w>":715,"re</w>":716,"lu":717,"how</w>":718,"'m</w>":719,"time</w>":720,"aga":721,"wi":722,"tr":723,"sur":724,"more</w>":725,"..":726,"get</w>":727,"other</w>":728,"pre":729,"ned</w>":730,"ong</w>":731,"der</w>":732,"vi":733,"par":734,"ys</w>":735,"pl":736,"side</w>":737,"fo":738,"tly</w>":739,"ck</w>":740,"eyes</w>":741,"ks</w>":742,"gi":743,"me":744,"ine</w>":745,"ate</w>":746,"ni":747,"self</w>":748,"...</w>":749,"per":750,"ty</w>":751,"af":752,"el</w>":753,"their</w>":754,"ice</w>":755,"head</w>":756,"thin":757,"pped</w>":758,"can</w>":759,"gr":760,"'re</w>":761,"man</w>":762,"who</w>":763,"ying</w>":764,"ling</w>":765,"ation</w>":766,"sto":767,"us</w>":768,"sm":769,"right</w>":770,"der":771,"sho":772,"ok</w>":773,"ge":774,"any</w>":775,"ga":776,"fore</w>":777,"pe":778,"ever":779,"ought</w>":780,"before</w>":781,"han":782,"new</w>":783,"even</w>":784,"around</w>":785,"ely</w>":786,"mp":787,"see</w>":788,"star":789,"cau":790,"any":791,"ved</w>":792,"here</w>":793,"ss":794,"sh</w>":795,"clo":796,"going</w>":797,"fir":798,"go</w>":799,"our":800,"thr":801,"ps</w>":802,"some</w>":803,"'ll</w>":804,"low":805,"where</w>":806,"ving</w>":807,"only</w>":808,"tion</w>":809,"hel":810,"off</w>":811,"will</w>":812,"na":813,"ci":814,"than</w>":815,"looked</w>":816,"able</w>":817,"tle</w>":818,"roo":819,"ons</w>":820,"ten":821,"through</w>":822,"want</w>":823,"ous</w>":824,"think</w>":825,"ning</w>":826,"cu":827,"hand</w>":828,"ba":829,"vo":830,"mar":831,"jo":832,"again</w>":833,"too</w>":834,"face</w>":835,"te</w>":836,"wal":837,"shi":838,"sw":839,"lit":840,"away</w>":841,"ft</w>":842,"still</w>":843,"room</w>":844,"ity</w>":845,"something</w>":846,"fe</w>":847,"come</w>":848,"ssi":849,"day</w>":850,"let</w>":851,"ry</w>":852,"ear</w>":853,"ep":854,"ings</w>":855,"gre":856,"car":857,"ered</w>":858,"est":859,"wan":860,"after</w>":861,"well</w>":862,"hear":863,"asked</w>":864,"bl":865,"thought</w>":866,"two</w>":867,"never</w>":868,"ang":869,"good</w>":870,"ever</w>":871,"end</w>":872,"sta":873,"ad":874,"ated</w>":875,"br":876,"ance</w>":877,"min":878,"cha":879,"'ve</w>":880,"sure</w>":881,"ck":882,"cause</w>":883,"hu":884,"made</w>":885,"got</w>":886,"tri":887,"ssed</w>":888,"much</w>":889,"look</w>":890,"ched</w>":891,"mb":892,"shed</w>":893,"fin":894,"why</w>":895,"du":896,"ward</w>":897,"bel":898,"turned</w>":899,"sha":900,"gg":901,"ach</w>":902,"bro":903,"gra":904,"most</w>":905,"knew</w>":906,"ath</w>":907,"door</w>":908,"little</w>":909,"tal":910,"ls</w>":911,"because</w>":912,"fel":913,"ened</w>":914,"tu":915,"war":916,"te":917,"sk":918,"ff":919,"sit":920,"take</w>":921,"happ":922,"man":923,"ms</w>":924,"make</w>":925,"cal":926,"every":927,"long</w>":928,"first</w>":929,"tra":930,"ach":931,"ste":932,"ful</w>":933,"ble</w>":934,"ess</w>":935,"im":936,"say</w>":937,"ence</w>":938,"came</w>":939,"ced</w>":940,"pri":941,"felt</w>":942,"bed</w>":943,"ree</w>":944,"son</w>":945,"mon":946,"dar":947,"took</w>":948,"ser":949,"app":950,"ki":951,"tru":952,"fri":953,"low</w>":954,"chi":955,"body</w>":956,"fr":957,"pla":958,"sin":959,"ali":960,"wanted</w>":961,"ose</w>":962,"very</w>":963,"ves</w>":964,"est</w>":965,"need</w>":966,"pul":967,"kno":968,"ears</w>":969,"dd":970,"stu":971,"tell</w>":972,"pi":973,"str":974,"dre":975,"really</w>":976,"cre":977,"red</w>":978,"bi":979,"has</w>":980,"cont":981,"he":982,"hands</w>":983,"which</w>":984,"sen":985,"peop":986,"its</w>":987,"sing</w>":988,"people</w>":989,"rec":990,"wat":991,"sli":992,"ca</w>":993,"should</w>":994,"night</w>":995,"ws</w>":996,"with":997,"though</w>":998,"left</w>":999,"while</w>":1000,"tting</w>":1001,"voice</w>":1002,"med</w>":1003,"again":1004,"ze</w>":1005,"against</w>":1006,"another</w>":1007,"wom":1008,"last</w>":1009,"lan":1010,"ready</w>":1011,"ment</w>":1012,"life</w>":1013,"told</w>":1014,"mem":1015,"mes</w>":1016,"mom":1017,"ja":1018,"mat":1019,"ous":1020,"pe</w>":1021,"ei":1022,"lar":1023,"les</w>":1024,"lau":1025,"few</w>":1026,"brea":1027,"age</w>":1028,"ion</w>":1029,"ways</w>":1030,"ph":1031,"kee":1032,"anything</w>":1033,"ined</w>":1034,"tt":1035,"being</w>":1036,"ents</w>":1037,"nothing</w>":1038,"cur":1039,"went</w>":1040,"ep</w>":1041,"hind</w>":1042,"behind</w>":1043,"ick</w>":1044,"ite</w>":1045,"enough</w>":1046,"comp":1047,"am</w>":1048,"ed":1049,"sor":1050,"tter</w>":1051,"seem":1052,"bar":1053,"mor":1054,"cor":1055,"does</w>":1056,"saw</w>":1057,"ouse</w>":1058,"shou":1059,"dea":1060,"may":1061,"unti":1062,"might</w>":1063,"feel</w>":1064,"zed</w>":1065,"tre":1066,"off":1067,"things</w>":1068,"col":1069,"dra":1070,"gir":1071,"put</w>":1072,"until</w>":1073,"own</w>":1074,"ka":1075,"those</w>":1076,"nex":1077,"bab":1078,"under":1079,"wo":1080,"looking</w>":1081,"place</w>":1082,"mind</w>":1083,"fac":1084,"find</w>":1085,"and":1086,"cla":1087,"win":1088,"ster</w>":1089,"fol":1090,"sil":1091,"light</w>":1092,"spec":1093,"beg":1094,"ie":1095,"maybe</w>":1096,"een</w>":1097,"once</w>":1098,"every</w>":1099,"iled</w>":1100,"less</w>":1101,"fron":1102,"ger</w>":1103,"cked</w>":1104,"gen":1105,"outh</w>":1106,"il</w>":1107,"hun":1108,"both</w>":1109,"hal":1110,"har":1111,"her":1112,"moment</w>":1113,"house</w>":1114,"next</w>":1115,"ching</w>":1116,"fing":1117,"lat":1118,"love</w>":1119,"always</w>":1120,"dri":1121,"old</w>":1122,"ept</w>":1123,"sted</w>":1124,"ness</w>":1125,"stre":1126,"ner</w>":1127,"my":1128,"work</w>":1129,"front</w>":1130,"ross</w>":1131,"found</w>":1132,"hair</w>":1133,"cer":1134,"stan":1135,"inter":1136,"stood</w>":1137,"plea":1138,"ean</w>":1139,"him":1140,"oh</w>":1141,"bre":1142,"rai":1143,"ken</w>":1144,"row":1145,"himself</w>":1146,"without</w>":1147,"ure</w>":1148,"dr":1149,"help</w>":1150,"inside</w>":1151,"poin":1152,"memb":1153,"wr":1154,"table</w>":1155,"ol</w>":1156,"woman</w>":1157,"father</w>":1158,"ey</w>":1159,"ating</w>":1160,"bri":1161,"hard</w>":1162,"home</w>":1163,"same</w>":1164,"ory</w>":1165,"sion</w>":1166,"lly</w>":1167,"give</w>":1168,"emp":1169,"ack":1170,"dly</w>":1171,"heard</w>":1172,"mother</w>":1173,"flo":1174,"men</w>":1175,"smi":1176,"cour":1177,"keep</w>":1178,"ans</w>":1179,"everything</w>":1180,"ul":1181,"ies</w>":1182,"each</w>":1183,"someone</w>":1184,"ey":1185,"ried</w>":1186,"mouth</w>":1187,"arm</w>":1188,"open</w>":1189,"arms</w>":1190,"dro":1191,"ank</w>":1192,"seemed</w>":1193,"nee":1194,"shoul":1195,"coun":1196,"gs</w>":1197,"better</w>":1198,"fre":1199,"ick":1200,"spo":1201,"bloo":1202,"three</w>":1203,"trying</w>":1204,"pulled</w>":1205,"ped</w>":1206,"betw":1207,"toward</w>":1208,"mer":1209,"between</w>":1210,"sle":1211,"answ":1212,"lowed</w>":1213,"nor":1214,"bur":1215,"exp":1216,"secon":1217,"years</w>":1218,"inst":1219,"small</w>":1220,"ached</w>":1221,"cra":1222,"across</w>":1223,"out":1224,"wait":1225,"feel":1226,"ses</w>":1227,"dded</w>":1228,"stand</w>":1229,"tered</w>":1230,"ven</w>":1231,"fami":1232,"set</w>":1233,"since</w>":1234,"started</w>":1235,"under</w>":1236,"ton":1237,"pping</w>":1238,"ening</w>":1239,"kes</w>":1240,"almost</w>":1241,"smile</w>":1242,"ors</w>":1243,"ani":1244,"already</w>":1245,"gave</w>":1246,"laugh":1247,"cr":1248,"ob":1249,"part</w>":1250,"pic":1251,"used</w>":1252,"rememb":1253,"words</w>":1254,"hur":1255,"done</w>":1256,"up":1257,"res</w>":1258,"must</w>":1259,"walked</w>":1260,"enti":1261,"minu":1262,"tou":1263,"pr":1264,"nu":1265,"gla":1266,"car</w>":1267,"att":1268,"ange</w>":1269,"won":1270,"ary</w>":1271,"many</w>":1272,"doing</w>":1273,"coming</w>":1274,"tried</w>":1275,"world</w>":1276,"cho":1277,"toge":1278,"heart</w>":1279,"ously</w>":1280,"together</w>":1281,"bea":1282,"kay</w>":1283,"else</w>":1284,"rep":1285,"ten</w>":1286,"je":1287,"these</w>":1288,"cou":1289,"lear":1290,"myself</w>":1291,"quest":1292,"dered</w>":1293,"dark</w>":1294,"seen</w>":1295,"stop</w>":1296,"row</w>":1297,"diff":1298,"eli":1299,"turn</w>":1300,"black</w>":1301,"try</w>":1302,"feet</w>":1303,"okay</w>":1304,"sat</w>":1305,"mag":1306,"sti":1307,"fec":1308,"nodded</w>":1309,"supp":1310,"far</w>":1311,"ort</w>":1312,"held</w>":1313,"ins</w>":1314,"mean</w>":1315,"ming</w>":1316,"va":1317,"yed</w>":1318,"ping</w>":1319,"girl</w>":1320,"lips</w>":1321,"lot</w>":1322,"times</w>":1323,"ghts</w>":1324,"gar":1325,"illed</w>":1326,"cl":1327,"see":1328,"hol":1329,"pas":1330,"reali":1331,"ann":1332,"herself</w>":1333,"sig":1334,"moved</w>":1335,"char":1336,"mil":1337,"hor":1338,"ious</w>":1339,"yet</w>":1340,"gged</w>":1341,"fully</w>":1342,"close</w>":1343,"hear</w>":1344,"ce":1345,"rest</w>":1346,"called</w>":1347,"smiled</w>":1348,"ged</w>":1349,"squ":1350,"began</w>":1351,"air</w>":1352,"water</w>":1353,"ssion</w>":1354,"tain</w>":1355,"who":1356,"leave</w>":1357,"ig":1358,"also</w>":1359,"belie":1360,"pow":1361,"name</w>":1362,"sy</w>":1363,"ders</w>":1364,"deci":1365,"fla":1366,"ering</w>":1367,"ssing</w>":1368,"mr":1369,"call</w>":1370,"clu":1371,"ol":1372,"wee":1373,"gone</w>":1374,"talk</w>":1375,"kind</w>":1376,"blood</w>":1377,"bit</w>":1378,"breath</w>":1379,"oth":1380,"getting</w>":1381,"floor</w>":1382,"tes</w>":1383,"tel":1384,"course</w>":1385,"wing</w>":1386,"says</w>":1387,"needed</w>":1388,"such</w>":1389,"ture</w>":1390,"shing</w>":1391,"word</w>":1392,"big</w>":1393,"friend</w>":1394,"des</w>":1395,"tually</w>":1396,"ble":1397,"sudd":1398,"contin":1399,"lean":1400,"dis":1401,"ask</w>":1402,"cen":1403,"finally</w>":1404,"rol":1405,"possi":1406,"shook</w>":1407,"reas":1408,"probab":1409,"ff</w>":1410,"ven":1411,"along</w>":1412,"fingers</w>":1413,"lon":1414,"gri":1415,"whisp":1416,"phone</w>":1417,"blu":1418,"probably</w>":1419,"second</w>":1420,"dam":1421,"ane</w>":1422,"least</w>":1423,"great</w>":1424,"continu":1425,"ve":1426,"sts</w>":1427,"later</w>":1428,"exc":1429,"ground</w>":1430,"yea":1431,"best</w>":1432,"shu":1433,"happened</w>":1434,"deep</w>":1435,"god</w>":1436,"ours</w>":1437,"mur":1438,"yeah</w>":1439,"past</w>":1440,"believe</w>":1441,"den</w>":1442,"soon</w>":1443,"half</w>":1444,"cli":1445,"lin":1446,"thro":1447,"men":1448,"stopped</w>":1449,"quick":1450,"sy":1451,"fle":1452,"chest</w>":1453,"white</w>":1454,"reached</w>":1455,"read</w>":1456,"making</w>":1457,"sorry</w>":1458,"ire</w>":1459,"days</w>":1460,"opened</w>":1461,"move</w>":1462,"family</w>":1463,"surpri":1464,"sound</w>":1465,"dow</w>":1466,"ement</w>":1467,"feeling</w>":1468,"dead</w>":1469,"direc":1470,"ect</w>":1471,"differ":1472,"everyone</w>":1473,"ide":1474,"morning</w>":1475,"ben":1476,"ately</w>":1477,"frien":1478,"ot</w>":1479,"ently</w>":1480,"youn":1481,"bbed</w>":1482,"wea":1483,"bra":1484,"lie</w>":1485,"act</w>":1486,"slow":1487,"ad</w>":1488,"anyone</w>":1489,"per</w>":1490,"hell</w>":1491,"vered</w>":1492,"taking</w>":1493,"bb":1494,"top</w>":1495,"over":1496,"wo</w>":1497,"bad</w>":1498,"idea</w>":1499,"imp":1500,"tal</w>":1501,"noti":1502,"quickly</w>":1503,"ah</w>":1504,"standing</w>":1505,"run":1506,"dge</w>":1507,"ining</w>":1508,"soun":1509,"comple":1510,"ren":1511,"au":1512,"wil":1513,"fted</w>":1514,"ale</w>":1515,"dic":1516,"irs</w>":1517,"aced</w>":1518,"mine</w>":1519,"qui":1520,"kept</w>":1521,"forward</w>":1522,"enly</w>":1523,"clea":1524,"tor":1525,"tions</w>":1526,"ber":1527,"ef":1528,"use</w>":1529,"lied</w>":1530,"la</w>":1531,"is":1532,"care</w>":1533,"mp</w>":1534,"shoulder</w>":1535,"ared</w>":1536,"tor</w>":1537,"anc":1538,"dou":1539,"spea":1540,"boy</w>":1541,"ran</w>":1542,"sk</w>":1543,"stri":1544,"eng":1545,"ship</w>":1546,"slowly</w>":1547,"glan":1548,"wall</w>":1549,"having</w>":1550,"bla":1551,"alone</w>":1552,"list":1553,"ond</w>":1554,"ar</w>":1555,"buil":1556,"onto</w>":1557,"stay</w>":1558,"remember</w>":1559,"tty</w>":1560,"ns</w>":1561,"closed</w>":1562,"skin</w>":1563,"cap":1564,"thinking</w>":1565,"stru":1566,"guy</w>":1567,"fore":1568,"iling</w>":1569,"ny</w>":1570,"minutes</w>":1571,"please</w>":1572,"sla":1573,"am":1574,"plan":1575,"wed</w>":1576,"watched</w>":1577,"hold</w>":1578,"point</w>":1579,"ler</w>":1580,"fire</w>":1581,"real</w>":1582,"high</w>":1583,"line</w>":1584,"full</w>":1585,"onal</w>":1586,"beau":1587,"ink</w>":1588,"outside</w>":1589,"atten":1590,"bor":1591,"talking</w>":1592,"wrong</w>":1593,"land</w>":1594,"either</w>":1595,"suddenly</w>":1596,"scho":1597,"may</w>":1598,"na</w>":1599,"ations</w>":1600,"ches</w>":1601,"oned</w>":1602,"stared</w>":1603,"pur":1604,"eri":1605,"resp":1606,"ghtly</w>":1607,"ones</w>":1608,"disa":1609,"chap":1610,"lor":1611,"run</w>":1612,"tun":1613,"fine</w>":1614,"vel":1615,"ley</w>":1616,"ser</w>":1617,"fact</w>":1618,"speci":1619,"fli":1620,"matter</w>":1621,"ths</w>":1622,"understand</w>":1623,"hat":1624,"near":1625,"chee":1626,"fal":1627,"ple</w>":1628,"actually</w>":1629,"thre":1630,"mom</w>":1631,"lost</w>":1632,"sses</w>":1633,"ead</w>":1634,"lar</w>":1635,"neck</w>":1636,"wait</w>":1637,"drea":1638,"ke":1639,"comm":1640,"pan":1641,"hon":1642,"five</w>":1643,"waiting</w>":1644,"ton</w>":1645,"cro":1646,"hand":1647,"zz":1648,"dist":1649,"dad</w>":1650,"cking</w>":1651,"pain</w>":1652,"swe":1653,"lou":1654,"sent</w>":1655,"aw":1656,"whole</w>":1657,"ma</w>":1658,"wards</w>":1659,"cat":1660,"ging</w>":1661,"friends</w>":1662,"ago</w>":1663,"chapter</w>":1664,"met</w>":1665,"den":1666,"four</w>":1667,"oc":1668,"young</w>":1669,"hurt</w>":1670,"walk</w>":1671,"bru":1672,"chec":1673,"blue</w>":1674,"ia</w>":1675,"tely</w>":1676,"eared</w>":1677,"sting</w>":1678,"boo":1679,"shir":1680,"taken</w>":1681,"mr.</w>":1682,"sit</w>":1683,"caught</w>":1684,"different</w>":1685,"pretty</w>":1686,"fig":1687,"simp":1688,"care":1689,"gue</w>":1690,"nat":1691,"lun":1692,"din":1693,"ters</w>":1694,"als</w>":1695,"die</w>":1696,"gro":1697,"instead</w>":1698,"laughed</w>":1699,"answer</w>":1700,"chang":1701,"stro":1702,"case</w>":1703,"imag":1704,"cold</w>":1705,"smo":1706,"tom":1707,"fast</w>":1708,"others</w>":1709,"desp":1710,"cks</w>":1711,"brother</w>":1712,"ef</w>":1713,"mm":1714,"kill</w>":1715,"ction</w>":1716,"prot":1717,"stom":1718,"large</w>":1719,"mber</w>":1720,"anger</w>":1721,"what":1722,"tin":1723,"gaze</w>":1724,"vy</w>":1725,"zing</w>":1726,"acti":1727,"fur":1728,"thir":1729,"leaned</w>":1730,"perfec":1731,"sever":1732,"fini":1733,"story</w>":1734,"window</w>":1735,"school</w>":1736,"screa":1737,"pat":1738,"brought</w>":1739,"dev":1740,"quite</w>":1741,"bal":1742,"possible</w>":1743,"fell</w>":1744,"looks</w>":1745,"strai":1746,"enty</w>":1747,"legs</w>":1748,"chil":1749,"ected</w>":1750,"hit</w>":1751,"chair</w>":1752,"consi":1753,"lowing</w>":1754,"che":1755,"question</w>":1756,"happy</w>":1757,"cle</w>":1758,"start</w>":1759,"sense</w>":1760,"del":1761,"da</w>":1762,"ner":1763,"chri":1764,"acc":1765,"inten":1766,"death</w>":1767,"whispered</w>":1768,"kit":1769,"glanced</w>":1770,"ight</w>":1771,"shar":1772,"stepped</w>":1773,"reason</w>":1774,"clear":1775,"mped</w>":1776,"hope</w>":1777,"ces</w>":1778,"sitting</w>":1779,"cal</w>":1780,"ker</w>":1781,"whatever</w>":1782,"holding</w>":1783,"thank</w>":1784,"shot</w>":1785,"int</w>":1786,"continued</w>":1787,"show</w>":1788,"town</w>":1789,"disapp":1790,"appro":1791,"acked</w>":1792,"several</w>":1793,"than":1794,"sol":1795,"change</w>":1796,"stor":1797,"sof":1798,"replied</w>":1799,"person</w>":1800,"es":1801,"died</w>":1802,"year</w>":1803,"expla":1804,"ty":1805,"abo":1806,"city</w>":1807,"hours</w>":1808,"covered</w>":1809,"exac":1810,"watching</w>":1811,"meant</w>":1812,"ring</w>":1813,"followed</w>":1814,"respon":1815,"known</w>":1816,"sna":1817,"peri":1818,"dent</w>":1819,"power</w>":1820,"medi":1821,"uni":1822,"exactly</w>":1823,"beauti":1824,"part":1825,"moving</w>":1826,"throat</w>":1827,"rema":1828,"running</w>":1829,"realized</w>":1830,"money</w>":1831,"watch</w>":1832,"mal</w>":1833,"ens</w>":1834,"eye</w>":1835,"mbled</w>":1836,"fer":1837,"comfor":1838,"guess</w>":1839,"sub":1840,"sleep</w>":1841,"shirt</w>":1842,"sear":1843,"rol</w>":1844,"hot</w>":1845,"glass</w>":1846,"vic":1847,"por":1848,"true</w>":1849,"od":1850,"haps</w>":1851,"cir":1852,"usu":1853,"ghter</w>":1854,"perhaps</w>":1855,"we":1856,"sing":1857,"form":1858,"kne":1859,"bil":1860,"book</w>":1861,"promi":1862,"attention</w>":1863,"yel":1864,"ther":1865,"kiss</w>":1866,"ited</w>":1867,"damn</w>":1868,"closer</w>":1869,"chen</w>":1870,"beautiful</w>":1871,"longer</w>":1872,"today</w>":1873,"fl":1874,"nice</w>":1875,"office</w>":1876,"shit</w>":1877,"iti":1878,"human</w>":1879,"stairs</w>":1880,"proble":1881,"touch</w>":1882,"sco":1883,"vamp":1884,"living</w>":1885,"given</w>":1886,"saying</w>":1887,"grabbed</w>":1888,"chance</w>":1889,"job</w>":1890,"late</w>":1891,"cut</w>":1892,"cing</w>":1893,"live</w>":1894,"ght":1895,"seat</w>":1896,"vers":1897,"pushed</w>":1898,"bot":1899,"shru":1900,"tea":1901,"vie":1902,"expre":1903,"cru":1904,"gun</w>":1905,"scre":1906,"beside</w>":1907,"mir":1908,"women</w>":1909,"ran":1910,"stra":1911,"nar":1912,"step</w>":1913,"jack</w>":1914,"wra":1915,"tic</w>":1916,"ates</w>":1917,"ist</w>":1918,"couple</w>":1919,"dering</w>":1920,"busin":1921,"pen":1922,"back":1923,"baby</w>":1924,"decided</w>":1925,"pal":1926,"turning</w>":1927,"sigh":1928,"teen</w>":1929,"wel":1930,"cy</w>":1931,"reli":1932,"thou":1933,"shoulders</w>":1934,"earing</w>":1935,"ddle</w>":1936,"tonight</w>":1937,"short</w>":1938,"vely</w>":1939,"jer":1940,"blo":1941,"rolled</w>":1942,"arri":1943,"tive</w>":1944,"doub":1945,"sar":1946,"ghten":1947,"mic":1948,"clear</w>":1949,"fear</w>":1950,"vin":1951,"above</w>":1952,"pressed</w>":1953,"loved</w>":1954,"lay</w>":1955,"kitchen</w>":1956,"near</w>":1957,"filled</w>":1958,"control</w>":1959,"vel</w>":1960,"ale":1961,"rel":1962,"sun":1963,"free</w>":1964,"thu":1965,"tom</w>":1966,"tt</w>":1967,"grow":1968,"tears</w>":1969,"leaving</w>":1970,"sister</w>":1971,"ult</w>":1972,"meet</w>":1973,"uring</w>":1974,"posit":1975,"tten</w>":1976,"bit":1977,"rose</w>":1978,"eight</w>":1979,"phi":1980,"passed</w>":1981,"dropped</w>":1982,"form</w>":1983,"street</w>":1984,"road</w>":1985,"spoke</w>":1986,"scu":1987,"sky</w>":1988,"len</w>":1989,"towards</w>":1990,"how":1991,"pt</w>":1992,"poli":1993,"sou":1994,"gy</w>":1995,"working</w>":1996,"band</w>":1997,"shut</w>":1998,"parents</w>":1999,"sides</w>":2000,"zy</w>":2001,"obvi":2002,"ort":2003,"secre":2004,"fight</w>":2005,"business</w>":2006,"val":2007,"tar":2008,"raised</w>":2009,"fied</w>":2010,"ie</w>":2011,"bul":2012,"um</w>":2013,"ffe":2014,"anyway</w>":2015,"int":2016,"ured</w>":2017,"silence</w>":2018,"twenty</w>":2019,"aged</w>":2020,"child</w>":2021,"soft</w>":2022,"ily</w>":2023,"tran":2024,"ttered</w>":2025,"drew</w>":2026,"gotten</w>":2027,"seeing</w>":2028,"within</w>":2029,"bring</w>":2030,"joh":2031,"easy</w>":2032,"rather</w>":2033,"upon</w>":2034,"mon</w>":2035,"tain":2036,"questi":2037,"inv":2038,"mel":2039,"building</w>":2040,"gl":2041,"sort</w>":2042,"ingly</w>":2043,"food</w>":2044,"s.</w>":2045,"dark":2046,"gry</w>":2047,"your":2048,"fun":2049,"immedi":2050,"cri":2051,"dress</w>":2052,"id":2053,"bir":2054,"completely</w>":2055,"green</w>":2056,"flu":2057,"ina</w>":2058,"ici":2059,"walking</w>":2060,"corner</w>":2061,"ils</w>":2062,"picked</w>":2063,"reco":2064,"noticed</w>":2065,"ne</w>":2066,"safe</w>":2067,"truth</w>":2068,"ster":2069,"dren</w>":2070,"speak</w>":2071,"stea":2072,"ror</w>":2073,"strong</w>":2074,"edge</w>":2075,"straight</w>":2076,"bs</w>":2077,"steps</w>":2078,"tee":2079,"children</w>":2080,"giving</w>":2081,"fall</w>":2082,"raid</w>":2083,"waited</w>":2084,"bly</w>":2085,"wer</w>":2086,"ic</w>":2087,"hour</w>":2088,"lifted</w>":2089,"stone</w>":2090,"crow":2091,"inning</w>":2092,"wife</w>":2093,"suppo":2094,"easi":2095,"gan</w>":2096,"changed</w>":2097,"thes</w>":2098,"grou":2099,"staring</w>":2100,"deal</w>":2101,"shes</w>":2102,"enjo":2103,"sun</w>":2104,"action</w>":2105,"week</w>":2106,"warm</w>":2107,"stomach</w>":2108,"ical</w>":2109,"miss</w>":2110,"six</w>":2111,"killed</w>":2112,"gon</w>":2113,"cket</w>":2114,"opp":2115,"happen</w>":2116,"yourself</w>":2117,"returned</w>":2118,"nearly</w>":2119,"concer":2120,"agre":2121,"ye</w>":2122,"deli":2123,"nei":2124,"whe":2125,"guys</w>":2126,"dies</w>":2127,"thoughts</w>":2128,"trou":2129,"prin":2130,"coffe":2131,"afraid</w>":2132,"guar":2133,"sighed</w>":2134,"import":2135,"eld</w>":2136,"knowing</w>":2137,"len":2138,"worked</w>":2139,"pull</w>":2140,"ise</w>":2141,"ct</w>":2142,"wol":2143,"wide</w>":2144,"van":2145,"quiet</w>":2146,"finger</w>":2147,"convers":2148,"clothes</w>":2149,"become</w>":2150,"et":2151,"fra":2152,"seem</w>":2153,"grand":2154,"eath</w>":2155,"yer</w>":2156,"teeth</w>":2157,"break</w>":2158,"sal":2159,"placed</w>":2160,"son":2161,"dows</w>":2162,"answered</w>":2163,"expression</w>":2164,"bag</w>":2165,"bat":2166,"during</w>":2167,"supposed</w>":2168,"coffee</w>":2169,"foot</w>":2170,"ly":2171,"xed</w>":2172,"bed":2173,"ank":2174,"ator</w>":2175,"minute</w>":2176,"worry</w>":2177,"gge":2178,"entire</w>":2179,"mit":2180,"desk</w>":2181,"girls</w>":2182,"are":2183,"sight</w>":2184,"lord</w>":2185,"ian</w>":2186,"rely</w>":2187,"wondered</w>":2188,"sir</w>":2189,"thanks</w>":2190,"makes</w>":2191,"gener":2192,"ounded</w>":2193,"perfect</w>":2194,"foo":2195,"selves</w>":2196,"gging</w>":2197,"immediately</w>":2198,"ets</w>":2199,"play</w>":2200,"thy</w>":2201,"telling</w>":2202,"empty</w>":2203,"problem</w>":2204,"mee":2205,"mb</w>":2206,"sometimes</w>":2207,"after":2208,"parti":2209,"surprised</w>":2210,"ities</w>":2211,"art</w>":2212,"dred</w>":2213,"scen":2214,"ball</w>":2215,"figure</w>":2216,"however</w>":2217,"ece</w>":2218,"beneath</w>":2219,"cky</w>":2220,"dau":2221,"trust</w>":2222,"although</w>":2223,"ith</w>":2224,"barely</w>":2225,"fil":2226,"certain</w>":2227,"lady</w>":2228,"hey</w>":2229,"pointed</w>":2230,"colle":2231,"finished</w>":2232,"middle</w>":2233,"shrugged</w>":2234,"order</w>":2235,"plan</w>":2236,"els</w>":2237,"appeared</w>":2238,"ats</w>":2239,"tight</w>":2240,"emo":2241,"knows</w>":2242,"eved</w>":2243,"ass</w>":2244,"quie":2245,"partment</w>":2246,"kissed</w>":2247,"blin":2248,"ja</w>":2249,"chu":2250,"dow":2251,"spir":2252,"number</w>":2253,"sam</w>":2254,"view</w>":2255,"inging</w>":2256,"interest":2257,"terri":2258,"became</w>":2259,"ition</w>":2260,"aching</w>":2261,"heavy</w>":2262,"simply</w>":2263,"hall</w>":2264,"moun":2265,"laugh</w>":2266,"cted</w>":2267,"months</w>":2268,"san":2269,"tan":2270,"slid</w>":2271,"wind</w>":2272,"ger":2273,"can":2274,"wish</w>":2275,"pid</w>":2276,"sul":2277,"hundred</w>":2278,"quick</w>":2279,"ghtened</w>":2280,"tongue</w>":2281,"fif":2282,"important</w>":2283,"cally</w>":2284,"formation</w>":2285,"headed</w>":2286,"drink</w>":2287,"space</w>":2288,"kil":2289,"eal</w>":2290,"woo":2291,"pain":2292,"conversation</w>":2293,"return</w>":2294,"cel":2295,"vol":2296,"fused</w>":2297,"hen":2298,"esca":2299,"lor</w>":2300,"group</w>":2301,"plac":2302,"except</w>":2303,"famili":2304,"pho":2305,"earth</w>":2306,"ste</w>":2307,"swi":2308,"trac":2309,"don</w>":2310,"wearing</w>":2311,"liked</w>":2312,"nose</w>":2313,"slightly</w>":2314,"ges</w>":2315,"ney</w>":2316,"spent</w>":2317,"added</w>":2318,"sign</w>":2319,"bar</w>":2320,"lit</w>":2321,"secur":2322,"comes</w>":2323,"wned</w>":2324,"sett":2325,"temp":2326,"gently</w>":2327,"gic</w>":2328,"hers</w>":2329,"writ":2330,"strange</w>":2331,"daughter</w>":2332,"ject</w>":2333,"tiny</w>":2334,"nor</w>":2335,"certain":2336,"sounded</w>":2337,"ta</w>":2338,"ahead</w>":2339,"dinner</w>":2340,"eel</w>":2341,"mmed</w>":2342,"tomor":2343,"cess":2344,"test</w>":2345,"tomorrow</w>":2346,"none</w>":2347,"pulling</w>":2348,"ssa":2349,"direction</w>":2350,"mmer</w>":2351,"pres":2352,"ry":2353,"tering</w>":2354,"doc":2355,"alive</w>":2356,"anymore</w>":2357,"sounds</w>":2358,"hy":2359,"lights</w>":2360,"recog":2361,"ddy</w>":2362,"area</w>":2363,"eye":2364,"doors</w>":2365,"stret":2366,"inned</w>":2367,"ically</w>":2368,"wake</w>":2369,"less":2370,"sci":2371,"weeks</w>":2372,"ky</w>":2373,"deep":2374,"touched</w>":2375,"beli":2376,"thick</w>":2377,"surprise</w>":2378,"tone</w>":2379,"ana</w>":2380,"ow</w>":2381,"lip</w>":2382,"--</w>":2383,"dir":2384,"rup":2385,"softly</w>":2386,"kids</w>":2387,"experi":2388,"trouble</w>":2389,"stic</w>":2390,"specially</w>":2391,"sped</w>":2392,"somewhere</w>":2393,"box</w>":2394,"atu":2395,"twi":2396,"frey":2397,"knees</w>":2398,"piece</w>":2399,"broken</w>":2400,"im</w>":2401,"somehow</w>":2402,"lying</w>":2403,"stuff</w>":2404,"paper</w>":2405,"guard</w>":2406,"jack":2407,"quietly</w>":2408,"force</w>":2409,"lo</w>":2410,"ality</w>":2411,"sive</w>":2412,"drive</w>":2413,"bey":2414,"cent</w>":2415,"freyja</w>":2416,"sweet</w>":2417,"early</w>":2418,"kni":2419,"mage</w>":2420,"cus</w>":2421,"ative</w>":2422,"ssa</w>":2423,"deser":2424,"eat</w>":2425,"bbing</w>":2426,"aling</w>":2427,"dang":2428,"beyond</w>":2429,"remembered</w>":2430,"especially</w>":2431,"situ":2432,"single</w>":2433,"slow</w>":2434,"sty</w>":2435,"questions</w>":2436,"spar":2437,"juli":2438,"worse</w>":2439,"bli":2440,"broke</w>":2441,"hesit":2442,"wants</w>":2443,"information</w>":2444,"defin":2445,"trees</w>":2446,"relea":2447,"police</w>":2448,"ital</w>":2449,"crazy</w>":2450,"cheek</w>":2451,"weap":2452,"ments</w>":2453,"cover</w>":2454,"tree</w>":2455,"reach</w>":2456,"check</w>":2457,"darkness</w>":2458,"conne":2459,"seconds</w>":2460,"tired</w>":2461,"locked</w>":2462,"paused</w>":2463,"board</w>":2464,"ra</w>":2465,"sugge":2466,"game</w>":2467,"itu":2468,"wrapped</w>":2469,"gray</w>":2470,"sex</w>":2471,"silent</w>":2472,"fav":2473,"hus":2474,"oud</w>":2475,"john</w>":2476,"scri":2477,"dom</w>":2478,"stupid</w>":2479,"thi":2480,"remin":2481,"dressed</w>":2482,"managed</w>":2483,"practi":2484,"male</w>":2485,"jen":2486,"aled</w>":2487,"mit</w>":2488,"distance</w>":2489,"ended</w>":2490,"seems</w>":2491,"alex</w>":2492,"walls</w>":2493,"follow</w>":2494,"threw</w>":2495,"wonder</w>":2496,"serv":2497,"huge</w>":2498,"bedroom</w>":2499,"meeting</w>":2500,"scar":2501,"vampire</w>":2502,"worried</w>":2503,"recogni":2504,"def":2505,"using</w>":2506,"brown</w>":2507,"expected</w>":2508,"dru":2509,"wood</w>":2510,"news</w>":2511,"bright</w>":2512,"means</w>":2513,"swal":2514,"beth</w>":2515,"mbling</w>":2516,"wri":2517,"doubt</w>":2518,"sic</w>":2519,"forced</w>":2520,"ery</w>":2521,"cess</w>":2522,"beat</w>":2523,"rela":2524,"heat</w>":2525,"ung</w>":2526,"unt</w>":2527,"often</w>":2528,"crowd</w>":2529,"unk</w>":2530,"mal":2531,"squee":2532,"vil":2533,"listen</w>":2534,"kin":2535,"thous":2536,"lier</w>":2537,"smiling</w>":2538,"ama":2539,"angry</w>":2540,"ghting</w>":2541,"thor":2542,"tted</w>":2543,"vid</w>":2544,"plu":2545,"mark</w>":2546,"anna</w>":2547,"cool</w>":2548,"eu":2549,"ignor":2550,"noon</w>":2551,"shaking</w>":2552,"yn</w>":2553,"evening</w>":2554,"party</w>":2555,"husband</w>":2556,"war</w>":2557,"sible</w>":2558,"thered</w>":2559,"catch</w>":2560,"tally</w>":2561,"position</w>":2562,"mrs.</w>":2563,"emer":2564,"promise</w>":2565,"bath":2566,"agreed</w>":2567,"tab":2568,"val</w>":2569,"surr":2570,"nic":2571,"pick</w>":2572,"arrived</w>":2573,"solu":2574,"loud</w>":2575,"site</w>":2576,"certainly</w>":2577,"further</w>":2578,"glad</w>":2579,"below</w>":2580,"nerv":2581,"ony</w>":2582,"lower</w>":2583,"relati":2584,"dog</w>":2585,"eve</w>":2586,"whether</w>":2587,"pocket</w>":2588,"comfortable</w>":2589,"boys</w>":2590,"nie</w>":2591,"serious</w>":2592,"key</w>":2593,"rock</w>":2594,"smell</w>":2595,"pay</w>":2596,"ng":2597,"appar":2598,"know":2599,"company</w>":2600,"pes</w>":2601,"tro":2602,"door":2603,"repe":2604,"field</w>":2605,"forget</w>":2606,"strugg":2607,"sword</w>":2608,"tall</w>":2609,"spect</w>":2610,"musc":2611,"fic":2612,"assu":2613,"playing</w>":2614,"desi":2615,"os</w>":2616,"attemp":2617,"survi":2618,"sist":2619,"thers</w>":2620,"keeping</w>":2621,"vering</w>":2622,"jas":2623,"lik":2624,"earlier</w>":2625,"mly</w>":2626,"ties</w>":2627,"dom":2628,"them":2629,"kid</w>":2630,"tel</w>":2631,"desper":2632,"situation</w>":2633,"hung</w>":2634,"hael</w>":2635,"captain</w>":2636,"clar":2637,"clearly</w>":2638,"down":2639,"dream</w>":2640,"incre":2641,"save</w>":2642,"luc":2643,"reading</w>":2644,"fru":2645,"themselves</w>":2646,"usual</w>":2647,"soldi":2648,"jake</w>":2649,"choice</w>":2650,"ysi":2651,"date</w>":2652,"pack</w>":2653,"swee":2654,"lived</w>":2655,"handed</w>":2656,"pper</w>":2657,"snapped</w>":2658,"grin</w>":2659,"streng":2660,"suc":2661,"acks</w>":2662,"zen</w>":2663,"fun</w>":2664,"fit</w>":2665,"doctor</w>":2666,"ssive</w>":2667,"hau":2668,"obviously</w>":2669,"inde":2670,"priv":2671,"soci":2672,"lish</w>":2673,"asking</w>":2674,"far":2675,"magic</w>":2676,"icked</w>":2677,"fortun":2678,"apartment</w>":2679,"wolf</w>":2680,"calm</w>":2681,"dden</w>":2682,"apo":2683,"sleep":2684,"carefully</w>":2685,"nick</w>":2686,"ren</w>":2687,"pair</w>":2688,"scra":2689,"pleasure</w>":2690,"scent</w>":2691,"slipped</w>":2692,"anti":2693,"gets</w>":2694,"bottom</w>":2695,"iously</w>":2696,"usually</w>":2697,"clean</w>":2698,"showed</w>":2699,"normal</w>":2700,"chin</w>":2701,"jumped</w>":2702,"james</w>":2703,"don":2704,"easily</w>":2705,"bun":2706,"entered</w>":2707,"natur":2708,"ature</w>":2709,"strea":2710,"crossed</w>":2711,"avo":2712,"rying</w>":2713,"sex":2714,"pil":2715,"mid":2716,"hoped</w>":2717,"mean":2718,"explain</w>":2719,"state</w>":2720,"sely</w>":2721,"takes</w>":2722,"shel":2723,"grew</w>":2724,"thed</w>":2725,"climb":2726,"familiar</w>":2727,"prepar":2728,"ired</w>":2729,"ility</w>":2730,"grinned</w>":2731,"center</w>":2732,"mista":2733,"hosp":2734,"ored</w>":2735,"gab":2736,"picture</w>":2737,"round</w>":2738,"messa":2739,"lan</w>":2740,"explo":2741,"lives</w>":2742,"deman":2743,"curi":2744,"ener":2745,"gun":2746,"ena</w>":2747,"eyebro":2748,"cab":2749,"spot</w>":2750,"despite</w>":2751,"secret</w>":2752,"hoping</w>":2753,"itself</w>":2754,"chuck":2755,"..</w>":2756,"path</w>":2757,"dan":2758,"offic":2759,"itely</w>":2760,"sea</w>":2761,"knowle":2762,"lies</w>":2763,"lose</w>":2764,"human":2765,"thirty</w>":2766,"talked</w>":2767,"formed</w>":2768,"disp":2769,"imagine</w>":2770,"pau":2771,"suit</w>":2772,"letting</w>":2773,"future</w>":2774,"ow":2775,"cell</w>":2776,"shouted</w>":2777,"butt":2778,"married</w>":2779,"even":2780,"laughing</w>":2781,"ben</w>":2782,"likely</w>":2783,"mate</w>":2784,"hate</w>":2785,"fair</w>":2786,"ries</w>":2787,"ya</w>":2788,"pass</w>":2789,"bathroom</w>":2790,"termin":2791,"leaning</w>":2792,"leg</w>":2793,"offered</w>":2794,"afternoon</w>":2795,"breathing</w>":2796,"pun":2797,"dying</w>":2798,"diffic":2799,"worth</w>":2800,"sharp</w>":2801,"strength</w>":2802,"rage</w>":2803,"van</w>":2804,"aware</w>":2805,"wet</w>":2806,"fer</w>":2807,"thin</w>":2808,"muttered</w>":2809,"soul</w>":2810,"dam</w>":2811,"remained</w>":2812,"dol":2813,"wore</w>":2814,"attack</w>":2815,"allowed</w>":2816,"metal</w>":2817,"emi":2818,"realize</w>":2819,"david</w>":2820,"shall</w>":2821,"grace</w>":2822,"gor":2823,"pra":2824,"lion</w>":2825,"frowned</w>":2826,"beginning</w>":2827,"sse":2828,"exa":2829,"hide</w>":2830,"protec":2831,"dry</w>":2832,"counter</w>":2833,"simple</w>":2834,"cheeks</w>":2835,"send</w>":2836,"mike</w>":2837,"besides</w>":2838,"coo":2839,"helped</w>":2840,"waist</w>":2841,"definitely</w>":2842,"search</w>":2843,"ounds</w>":2844,"physi":2845,"mary</w>":2846,"stly</w>":2847,"music</w>":2848,"pati":2849,"invol":2850,"effor":2851,"stayed</w>":2852,"ban":2853,"kar":2854,"team</w>":2855,"memory</w>":2856,"gal":2857,"liam</w>":2858,"publi":2859,"master</w>":2860,"handle</w>":2861,"sick</w>":2862,"dr.</w>":2863,"turns</w>":2864,"truck</w>":2865,"var":2866,"imed</w>":2867,"ages</w>":2868,"drop</w>":2869,"neither</w>":2870,"glance</w>":2871,"sn":2872,"weight</w>":2873,"scared</w>":2874,"vers</w>":2875,"fuck</w>":2876,"bow</w>":2877,"seven</w>":2878,"class</w>":2879,"yle</w>":2880,"convin":2881,"michael</w>":2882,"gold</w>":2883,"chur":2884,"rit":2885,"ffed</w>":2886,"brain</w>":2887,"asks</w>":2888,"spe":2889,"following</w>":2890,"fighting</w>":2891,"older</w>":2892,"high":2893,"needs</w>":2894,"dding</w>":2895,"cried</w>":2896,"danger":2897,"knife</w>":2898,"explained</w>":2899,"mission</w>":2900,"vir":2901,"new":2902,"wise</w>":2903,"murmur":2904,"notice</w>":2905,"deta":2906,"erful</w>":2907,"anci":2908,"cry</w>":2909,"hood</w>":2910,"bas":2911,"atures</w>":2912,"aside</w>":2913,"horse</w>":2914,"discu":2915,"she":2916,"confi":2917,"gn":2918,"mov":2919,"stantly</w>":2920,"main</w>":2921,"particu":2922,"settled</w>":2923,"resi":2924,"tex":2925,"missed</w>":2926,"guil":2927,"gui":2928,"dance</w>":2929,"forehead</w>":2930,"ek</w>":2931,"forever</w>":2932,"spread</w>":2933,"relation":2934,"silver</w>":2935,"destro":2936,"preten":2937,"ounding</w>":2938,"screen</w>":2939,"energy</w>":2940,"hospital</w>":2941,"max</w>":2942,"suff":2943,"drove</w>":2944,"fting</w>":2945,"oning</w>":2946,"dani":2947,"recei":2948,"aned</w>":2949,"falling</w>":2950,"apart</w>":2951,"za":2952,"learned</w>":2953,"calling</w>":2954,"foot":2955,"ate":2956,"amer":2957,"stare</w>":2958,"appre":2959,"wed":2960,"store</w>":2961,"sions</w>":2962,"oper":2963,"moments</w>":2964,"compu":2965,"head":2966,"cused</w>":2967,"drin":2968,"memor":2969,"hall":2970,"sigh</w>":2971,"dan</w>":2972,"trans":2973,"sati":2974,"leng":2975,"wl</w>":2976,"rain</w>":2977,"mble</w>":2978,"jaw</w>":2979,"cker</w>":2980,"third</w>":2981,"lin</w>":2982,"special</w>":2983,"loc":2984,"wear</w>":2985,"tures</w>":2986,"ken":2987,"apparently</w>":2988,"lock</w>":2989,"polit":2990,"jason</w>":2991,"flesh</w>":2992,"goes</w>":2993,"understood</w>":2994,"carried</w>":2995,"opening</w>":2996,"ride</w>":2997,"pale</w>":2998,"det":2999,"inclu":3000,"shock</w>":3001,"security</w>":3002,"putting</w>":3003,"busy</w>":3004,"ash</w>":3005,"river</w>":3006,"break":3007,"hole</w>":3008,"emy</w>":3009,"lead</w>":3010,"gest":3011,"ka</w>":3012,"protect</w>":3013,"tow":3014,"tation</w>":3015,"queen</w>":3016,"books</w>":3017,"pants</w>":3018,"camer":3019,"gger</w>":3020,"inted</w>":3021,"jac":3022,"elled</w>":3023,"lap":3024,"profe":3025,"cup</w>":3026,"indi":3027,"maj":3028,"stuck</w>":3029,"pers":3030,"hanging</w>":3031,"battle</w>":3032,"shake</w>":3033,"gol":3034,"ester":3035,"bottle</w>":3036,"sudden</w>":3037,"americ":3038,"wondering</w>":3039,"escape</w>":3040,"relief</w>":3041,"org":3042,"wanting</w>":3043,"quar":3044,"ices</w>":3045,"kel":3046,"necess":3047,"air":3048,"ough":3049,"miles</w>":3050,"disappeared</w>":3051,"oms</w>":3052,"listening</w>":3053,"pose</w>":3054,"christ":3055,"push</w>":3056,"dness</w>":3057,"night":3058,"starting</w>":3059,"vision</w>":3060,"spi":3061,"stian</w>":3062,"acy</w>":3063,"kin</w>":3064,"ber</w>":3065,"radi":3066,"bby</w>":3067,"effec":3068,"sign":3069,"excit":3070,"crea":3071,"dangerous</w>":3072,"jeans</w>":3073,"noise</w>":3074,"hated</w>":3075,"dear</w>":3076,"figured</w>":3077,"willing</w>":3078,"learn</w>":3079,"shop</w>":3080,"stle</w>":3081,"eventually</w>":3082,"expect</w>":3083,"jec":3084,"screamed</w>":3085,"couch</w>":3086,"contact</w>":3087,"bran":3088,"guards</w>":3089,"absolu":3090,"mie</w>":3091,"fic</w>":3092,"level</w>":3093,"ph</w>":3094,"speaking</w>":3095,"dings</w>":3096,"mini":3097,"nel</w>":3098,"thousand</w>":3099,"count</w>":3100,"....</w>":3101,"sa</w>":3102,"susp":3103,"ination</w>":3104,"born</w>":3105,"ines</w>":3106,"horri":3107,"peter</w>":3108,"satis":3109,"windows</w>":3110,"summer</w>":3111,"elec":3112,"cy":3113,"exi":3114,"sat":3115,"ine":3116,"mul":3117,"unless</w>":3118,"un</w>":3119,"amu":3120,"laid</w>":3121,"viol":3122,"mping</w>":3123,"dor":3124,"difficult</w>":3125,"bodies</w>":3126,"paul</w>":3127,"powerful</w>":3128,"oli":3129,"emma</w>":3130,"missing</w>":3131,"entr":3132,"rick</w>":3133,"poor</w>":3134,"coat</w>":3135,"considered</w>":3136,"fresh</w>":3137,"country</w>":3138,"oppo":3139,"careful</w>":3140,"gate</w>":3141,"places</w>":3142,"offer</w>":3143,"apolo":3144,"anic</w>":3145,"thom":3146,"free":3147,"yelled</w>":3148,"among</w>":3149,"dence</w>":3150,"shor":3151,"chan":3152,"mach":3153,"pers</w>":3154,"happening</w>":3155,"fan":3156,"hotel</w>":3157,"lic":3158,"burst</w>":3159,"uncle</w>":3160,"sleeping</w>":3161,"tie</w>":3162,"ford</w>":3163,"wled</w>":3164,"message</w>":3165,"lows</w>":3166,"gli":3167,"bent</w>":3168,"geor":3169,"growing</w>":3170,"smoke</w>":3171,"lucky</w>":3172,"station</w>":3173,"grip</w>":3174,"acking</w>":3175,"shower</w>":3176,"expec":3177,"ssy</w>":3178,"hallway</w>":3179,"embar":3180,"acted</w>":3181,"fas":3182,"desire</w>":3183,"color</w>":3184,"mirror</w>":3185,"produ":3186,"provi":3187,"relationship</w>":3188,"rowed</w>":3189,"chase</w>":3190,"personal</w>":3191,"ending</w>":3192,"clen":3193,"truly</w>":3194,"nah</w>":3195,"adam</w>":3196,"commun":3197,"rat":3198,"accep":3199,"response</w>":3200,"shifted</w>":3201,"requ":3202,"leg":3203,"wine</w>":3204,"complete</w>":3205,"asle":3206,"eyed</w>":3207,"asleep</w>":3208,"sarah</w>":3209,"suppose</w>":3210,"swa":3211,"ners</w>":3212,"chal":3213,"sen</w>":3214,"vin</w>":3215,"spend</w>":3216,"mad</w>":3217,"driver</w>":3218,"tte</w>":3219,"argu":3220,"achel</w>":3221,"stron":3222,"comman":3223,"finding</w>":3224,"arr":3225,"begin</w>":3226,"ater</w>":3227,"ston</w>":3228,"visit</w>":3229,"obvious</w>":3230,"travel":3231,"yours</w>":3232,"snow</w>":3233,"sea":3234,"refle":3235,"laughter</w>":3236,"movi":3237,"present</w>":3238,"admit</w>":3239,"eigh":3240,"murmured</w>":3241,"va</w>":3242,"directly</w>":3243,"feelings</w>":3244,"rachel</w>":3245,"visit":3246,"waved</w>":3247,"gie</w>":3248,"share</w>":3249,"trip</w>":3250,"tem":3251,"note</w>":3252,"witch</w>":3253,"served</w>":3254,"presence</w>":3255,"private</w>":3256,"dem":3257,"bility</w>":3258,"focus</w>":3259,"funny</w>":3260,"stick</w>":3261,"ssie</w>":3262,"instru":3263,"ethan</w>":3264,"shadow</w>":3265,"twisted</w>":3266,"stem</w>":3267,"throw</w>":3268,"faces</w>":3269,"acing</w>":3270,"fallen</w>":3271,"riage</w>":3272,"embarra":3273,"wave</w>":3274,"clock</w>":3275,"mming</w>":3276,"ards</w>":3277,"weir":3278,"stal":3279,"ires</w>":3280,"hoo":3281,"experience</w>":3282,"wild</w>":3283,"rubbed</w>":3284,"win</w>":3285,"played</w>":3286,"til":3287,"gru":3288,"assa":3289,"appreci":3290,"pushing</w>":3291,"glar":3292,"tured</w>":3293,"elle</w>":3294,"flat</w>":3295,"confused</w>":3296,"possibly</w>":3297,"harder</w>":3298,"lowered</w>":3299,"hunter</w>":3300,"taste</w>":3301,"recor":3302,"hips</w>":3303,"general</w>":3304,"speed</w>":3305,"que</w>":3306,"burning</w>":3307,"boat</w>":3308,"determin":3309,"lines</w>":3310,"lunch</w>":3311,"nervous</w>":3312,"stretched</w>":3313,"curren":3314,"kers</w>":3315,"fish</w>":3316,"atic</w>":3317,"invest":3318,"ko":3319,"ease</w>":3320,"law</w>":3321,"cul":3322,"anywhere</w>":3323,"ele":3324,"heads</w>":3325,"ak</w>":3326,"ounced</w>":3327,"claire</w>":3328,"forest</w>":3329,"swallowed</w>":3330,"via</w>":3331,"rolling</w>":3332,"bert</w>":3333,"surface</w>":3334,"excu":3335,"press</w>":3336,"computer</w>":3337,"size</w>":3338,"believed</w>":3339,"impossible</w>":3340,"tra</w>":3341,"natural</w>":3342,"burned</w>":3343,"hidden</w>":3344,"cip":3345,"ably</w>":3346,"alex":3347,"dy":3348,"leather</w>":3349,"approached</w>":3350,"join</w>":3351,"reminded</w>":3352,"shoes</w>":3353,"knowledge</w>":3354,"distr":3355,"insi":3356,"pour":3357,"grab</w>":3358,"correc":3359,"final</w>":3360,"moon</w>":3361,"nobody</w>":3362,"gover":3363,"ink":3364,"checked</w>":3365,"humans</w>":3366,"interest</w>":3367,"woke</w>":3368,"surely</w>":3369,"jon":3370,"ability</w>":3371,"sophi":3372,"frustr":3373,"thru":3374,"jacket</w>":3375,"occa":3376,"bare</w>":3377,"entrance</w>":3378,"iness</w>":3379,"posse":3380,"shadows</w>":3381,"club</w>":3382,"allow</w>":3383,"interrup":3384,"zi":3385,"nod</w>":3386,"cat</w>":3387,"tion":3388,"jour":3389,"pink</w>":3390,"nur":3391,"paid</w>":3392,"blinked</w>":3393,"seriously</w>":3394,"tains</w>":3395,"list</w>":3396,"rang</w>":3397,"anny</w>":3398,"decision</w>":3399,"hardly</w>":3400,"villa":3401,"evil</w>":3402,"lid</w>":3403,"wished</w>":3404,"claimed</w>":3405,"interested</w>":3406,"vampires</w>":3407,"oth</w>":3408,"army</w>":3409,"loy":3410,"side":3411,"medic":3412,"mess</w>":3413,"nt</w>":3414,"forth</w>":3415,"sand":3416,"loa":3417,"arti":3418,"ari":3419,"involved</w>":3420,"mas</w>":3421,"climbed</w>":3422,"continue</w>":3423,"system</w>":3424,"hearing</w>":3425,"driving</w>":3426,"finish</w>":3427,"wonder":3428,"end":3429,"church</w>":3430,"signed</w>":3431,"bon":3432,"ordered</w>":3433,"mous</w>":3434,"glasses</w>":3435,"thomas</w>":3436,"mor</w>":3437,"stage</w>":3438,"cin":3439,"doorway</w>":3440,"repor":3441,"beer</w>":3442,"brief":3443,"ests</w>":3444,"whisper</w>":3445,"dor</w>":3446,"sha</w>":3447,"scene</w>":3448,"concerned</w>":3449,"mer</w>":3450,"slu":3451,"lli":3452,"welcome</w>":3453,"good":3454,"tat":3455,"lap</w>":3456,"memories</w>":3457,"god":3458,"promised</w>":3459,"ign":3460,"history</w>":3461,"uh</w>":3462,"threat":3463,"gho":3464,"cross</w>":3465,"henry</w>":3466,"palm</w>":3467,"circle</w>":3468,"bol":3469,"aunt</w>":3470,"mps</w>":3471,"daniel</w>":3472,"bite</w>":3473,"odd</w>":3474,"focused</w>":3475,"west</w>":3476,"ling":3477,"perfectly</w>":3478,"nine</w>":3479,"crying</w>":3480,"north</w>":3481,"neigh":3482,"demon</w>":3483,"yellow</w>":3484,"listened</w>":3485,"joe</w>":3486,"buy</w>":3487,"demanded</w>":3488,"image</w>":3489,"park</w>":3490,"indeed</w>":3491,"unable</w>":3492,"bear</w>":3493,"struck</w>":3494,"isa":3495,"acci":3496,"ements</w>":3497,"inno":3498,"jud":3499,"fought</w>":3500,"frea":3501,"built</w>":3502,"law":3503,"lessly</w>":3504,"plate</w>":3505,"mostly</w>":3506,"cleared</w>":3507,"piec":3508,"descri":3509,"stat":3510,"breakfast</w>":3511,"sis</w>":3512,"sity</w>":3513,"ances</w>":3514,"effort</w>":3515,"reaching</w>":3516,"cast</w>":3517,"issu":3518,"twice</w>":3519,"oul":3520,"separ":3521,"delic":3522,"circ":3523,"sni":3524,"em</w>":3525,"feels</w>":3526,"rush</w>":3527,"forgotten</w>":3528,"photo":3529,"faster</w>":3530,"lets</w>":3531,"disappo":3532,"anne</w>":3533,"danger</w>":3534,"bet</w>":3535,"terrible</w>":3536,"iles</w>":3537,"heading</w>":3538,"joined</w>":3539,"ceiling</w>":3540,"gar</w>":3541,"slammed</w>":3542,"storm</w>":3543,"tossed</w>":3544,"enjoy</w>":3545,"flying</w>":3546,"scream</w>":3547,"totally</w>":3548,"bones</w>":3549,"ent":3550,"faced</w>":3551,"seth</w>":3552,"soldiers</w>":3553,"tch</w>":3554,"ai</w>":3555,"muscles</w>":3556,"gigg":3557,"weak</w>":3558,"presen":3559,"shoved</w>":3560,"ette</w>":3561,"regre":3562,"gasped</w>":3563,"rich":3564,"bag":3565,"hiding</w>":3566,"non":3567,"heal":3568,"hi</w>":3569,"hello</w>":3570,"glo":3571,"prepared</w>":3572,"island</w>":3573,"weird</w>":3574,"instantly</w>":3575,"warri":3576,"defen":3577,"wedding</w>":3578,"preci":3579,"flew</w>":3580,"fly</w>":3581,"lowers</w>":3582,"nature</w>":3583,"rested</w>":3584,"pieces</w>":3585,"sour":3586,"rowing</w>":3587,"sym":3588,"positi":3589,"oni":3590,"swung</w>":3591,"month</w>":3592,"ops</w>":3593,"type</w>":3594,"circu":3595,"anno":3596,"00</w>":3597,"south</w>":3598,"super":3599,"opposite</w>":3600,"breathe</w>":3601,"wooden</w>":3602,"rif":3603,"elev":3604,"pit":3605,"kicked</w>":3606,"wound</w>":3607,"lars</w>":3608,"favor":3609,"risk</w>":3610,"woods</w>":3611,"roll</w>":3612,"ache</w>":3613,"grass</w>":3614,"six":3615,"affec":3616,"just":3617,"weapon</w>":3618,"luci":3619,"beach</w>":3620,"ignored</w>":3621,"evid":3622,"blade</w>":3623,"gabri":3624,"killing</w>":3625,"dreams</w>":3626,"panic</w>":3627,"centr":3628,"skir":3629,"parking</w>":3630,"boots</w>":3631,"admit":3632,"brothers</w>":3633,"ray</w>":3634,"tea</w>":3635,"dition</w>":3636,"grown</w>":3637,"necessary</w>":3638,"sweat</w>":3639,"pier":3640,"exten":3641,"absolutely</w>":3642,"boy":3643,"loose</w>":3644,"kate</w>":3645,"ryan</w>":3646,"proper":3647,"breaking</w>":3648,"mc":3649,"creature</w>":3650,"rushed</w>":3651,"inch</w>":3652,"tech":3653,"east</w>":3654,"hang</w>":3655,"motion</w>":3656,"folded</w>":3657,"eating</w>":3658,"dents</w>":3659,"yester":3660,"stic":3661,"mention</w>":3662,"fren":3663,"tail</w>":3664,"rising</w>":3665,"interesting</w>":3666,"burn</w>":3667,"wid":3668,"staf":3669,"bill</w>":3670,"sured</w>":3671,"blow</w>":3672,"sad</w>":3673,"leaves</w>":3674,"plans</w>":3675,"steady</w>":3676,"firm</w>":3677,"yesterday</w>":3678,"shee":3679,"ky":3680,"excuse</w>":3681,"sm</w>":3682,"naked</w>":3683,"ze":3684,"ctions</w>":3685,"other":3686,"ortun":3687,"cand":3688,"tightly</w>":3689,"whose</w>":3690,"amazing</w>":3691,"length</w>":3692,"public</w>":3693,"squeezed</w>":3694,"menti":3695,"sp</w>":3696,"yan":3697,"anim":3698,"button</w>":3699,"--":3700,"opportun":3701,"sus</w>":3702,"fist</w>":3703,"wonderful</w>":3704,"acher</w>":3705,"movement</w>":3706,"san</w>":3707,"card</w>":3708,"concentr":3709,"visible</w>":3710,"inc":3711,"refu":3712,"hill</w>":3713,"bloody</w>":3714,"matt</w>":3715,"exhau":3716,"rich</w>":3717,"lake</w>":3718,"mea":3719,"worst</w>":3720,"female</w>":3721,"tent</w>":3722,"fair":3723,"gentle</w>":3724,"carry</w>":3725,"warning</w>":3726,"jamie</w>":3727,"stories</w>":3728,"song</w>":3729,"clou":3730,"gree":3731,"cry":3732,"wrist</w>":3733,"danc":3734,"anx":3735,"brushed</w>":3736,"mark":3737,"sey</w>":3738,"sters</w>":3739,"dun":3740,"cole</w>":3741,"fy</w>":3742,"tied</w>":3743,"slo":3744,"diti":3745,"golden</w>":3746,"grey</w>":3747,"fault</w>":3748,"yard</w>":3749,"orig":3750,"fifteen</w>":3751,"psy":3752,"angel</w>":3753,"luck</w>":3754,"screaming</w>":3755,"safe":3756,"bles</w>":3757,"eless</w>":3758,"bree":3759,"black":3760,"caused</w>":3761,"bridge</w>":3762,"disgu":3763,"slept</w>":3764,"reve":3765,"court</w>":3766,"tern":3767,"hil":3768,"verse</w>":3769,"indic":3770,"stan</w>":3771,"tho":3772,"pool</w>":3773,"removed</w>":3774,"concern</w>":3775,"dged</w>":3776,"person":3777,"ational</w>":3778,"rise</w>":3779,"fortunately</w>":3780,"hungry</w>":3781,"posed</w>":3782,"fucking</w>":3783,"subject</w>":3784,"resul":3785,"ast":3786,"plane</w>":3787,"confu":3788,"studied</w>":3789,"ura</w>":3790,"cs</w>":3791,"ai":3792,"happens</w>":3793,"scious</w>":3794,"repeated</w>":3795,"works</w>":3796,"college</w>":3797,"agree</w>":3798,"regi":3799,"hou":3800,"upset</w>":3801,"officer</w>":3802,"numb":3803,"peace</w>":3804,"spee":3805,"mistake</w>":3806,"carrying</w>":3807,"released</w>":3808,"dirt</w>":3809,"start":3810,"reaction</w>":3811,"cer</w>":3812,"tau":3813,"19":3814,"fire":3815,"cil</w>":3816,"gue":3817,"snor":3818,"eled</w>":3819,"arrang":3820,"searching</w>":3821,"easier</w>":3822,"charge</w>":3823,"acting</w>":3824,"planned</w>":3825,"tter":3826,"tors</w>":3827,"bought</w>":3828,"itted</w>":3829,"chuckled</w>":3830,"charlie</w>":3831,"losing</w>":3832,"co</w>":3833,"thinks</w>":3834,"wings</w>":3835,"bringing</w>":3836,"cher</w>":3837,"bear":3838,"drawn</w>":3839,"landed</w>":3840,"comb":3841,"tters</w>":3842,"huh</w>":3843,"tip</w>":3844,"simon</w>":3845,"decide</w>":3846,"spected</w>":3847,"casu":3848,"ttle</w>":3849,"intro":3850,"hesitated</w>":3851,"shape</w>":3852,"gathered</w>":3853,"weapons</w>":3854,"suggested</w>":3855,"emotions</w>":3856,"written</w>":3857,"echo":3858,"accept</w>":3859,"resta":3860,"advan":3861,"restaur":3862,"ron":3863,"leading</w>":3864,"ue</w>":3865,"smooth</w>":3866,"ash":3867,"scrat":3868,"refused</w>":3869,"bone</w>":3870,"nearby</w>":3871,"calls</w>":3872,"edly</w>":3873,"sement</w>":3874,"curled</w>":3875,"star</w>":3876,"bye</w>":3877,"george</w>":3878,"jerked</w>":3879,"animal</w>":3880,"jump</w>":3881,"regar":3882,"mou":3883,"mail</w>":3884,"bitch</w>":3885,"deeper</w>":3886,"gly</w>":3887,"base</w>":3888,"ancy</w>":3889,"kie</w>":3890,"richard</w>":3891,"reality</w>":3892,"o'":3893,"ckets</w>":3894,"shoo":3895,"sca":3896,"shift</w>":3897,"favorite</w>":3898,"letter</w>":3899,"dirty</w>":3900,"staying</w>":3901,"smiles</w>":3902,"blank":3903,"shared</w>":3904,"double</w>":3905,"oo":3906,"roof</w>":3907,"ount</w>":3908,"pregn":3909,"showing</w>":3910,"luke</w>":3911,"prince</w>":3912,"touching</w>":3913,"lig":3914,"flight</w>":3915,"kn":3916,"shocked</w>":3917,"moti":3918,"smart</w>":3919,"train</w>":3920,"track</w>":3921,"avoid</w>":3922,"investig":3923,"regu":3924,"worn</w>":3925,"fill</w>":3926,"finger":3927,"fifty</w>":3928,"pleased</w>":3929,"stun":3930,"eyebrows</w>":3931,"everywhere</w>":3932,"kissing</w>":3933,"flashed</w>":3934,"local</w>":3935,"awk":3936,"support</w>":3937,"gas</w>":3938,"thering</w>":3939,"mood</w>":3940,"entirely</w>":3941,"spoken</w>":3942,"knocked</w>":3943,"strang":3944,"bus</w>":3945,"adv":3946,"ham</w>":3947,"narrow</w>":3948,"occu":3949,"domin":3950,"oped</w>":3951,"rooms</w>":3952,"saved</w>":3953,"warm":3954,"otherwise</w>":3955,"recognized</w>":3956,"gher</w>":3957,"closing</w>":3958,"spr":3959,"service</w>":3960,"spun</w>":3961,"introdu":3962,"deeply</w>":3963,"lily</w>":3964,"sal</w>":3965,"step":3966,"fts</w>":3967,"jan":3968,"py</w>":3969,"giant</w>":3970,"scan":3971,"sation</w>":3972,"heavi":3973,"ordin":3974,"libr":3975,"growled</w>":3976,"cars</w>":3977,"vul":3978,"conscious</w>":3979,"warmth</w>":3980,"silently</w>":3981,"ace":3982,"dal":3983,"bast":3984,"tual</w>":3985,"passing</w>":3986,"training</w>":3987,"eric</w>":3988,"clenched</w>":3989,"dust</w>":3990,"yor":3991,"teen":3992,"emily</w>":3993,"belly</w>":3994,"keys</w>":3995,"inn</w>":3996,"staff</w>":3997,"reply</w>":3998,"equ":3999,"attempt</w>":4000,"purpose</w>":4001,"itude</w>":4002,"exper":4003,"jun":4004,"inci":4005,"ples</w>":4006,"idi":4007,"shoot</w>":4008,"names</w>":4009,"experien":4010,"mountain</w>":4011,"prove</w>":4012,"discovered</w>":4013,"awake</w>":4014,"vious</w>":4015,"tle":4016,"honey</w>":4017,"sending</w>":4018,"extra</w>":4019,"answers</w>":4020,"rough</w>":4021,"xes</w>":4022,"excited</w>":4023,"soa":4024,"impre":4025,"lack</w>":4026,"inti":4027,"yers</w>":4028,"deck</w>":4029,"opportunity</w>":4030,"ships</w>":4031,"knee</w>":4032,"mentioned</w>":4033,"gift</w>":4034,"ella</w>":4035,"dragged</w>":4036,"beauty</w>":4037,"drunk</w>":4038,"tage</w>":4039,"nate</w>":4040,"milit":4041,"clut":4042,"bother</w>":4043,"helping</w>":4044,"mental</w>":4045,"surrounded</w>":4046,"belt</w>":4047,"tin</w>":4048,"named</w>":4049,"ica</w>":4050,"buried</w>":4051,"enemy</w>":4052,"smir":4053,"dest</w>":4054,"consider</w>":4055,"drawing</w>":4056,"problems</w>":4057,"shud":4058,"port</w>":4059,"bie</w>":4060,"desperate</w>":4061,"sand</w>":4062,"belon":4063,"writing</w>":4064,"plenty</w>":4065,"younger</w>":4066,"logan</w>":4067,"physical</w>":4068,"imagined</w>":4069,"pointing</w>":4070,"breathed</w>":4071,"interrupted</w>":4072,"tha</w>":4073,"mac":4074,"christmas</w>":4075,"brow</w>":4076,"narrowed</w>":4077,"stress</w>":4078,"aches</w>":4079,"proud</w>":4080,"horses</w>":4081,"apologi":4082,"evi":4083,"common</w>":4084,"steel</w>":4085,"process</w>":4086,"instant</w>":4087,"camp</w>":4088,"waves</w>":4089,"bank</w>":4090,"smal":4091,"excitement</w>":4092,"tit":4093,"setting</w>":4094,"vehi":4095,"faint</w>":4096,"grow</w>":4097,"groaned</w>":4098,"ants</w>":4099,"tory</w>":4100,"vity</w>":4101,"pictures</w>":4102,"serve</w>":4103,"tightened</w>":4104,"eased</w>":4105,"draw</w>":4106,"dozen</w>":4107,"brief</w>":4108,"langu":4109,"boss</w>":4110,"william</w>":4111,"corri":4112,"streets</w>":4113,"help":4114,"race</w>":4115,"fran":4116,"marriage</w>":4117,"eding</w>":4118,"faded</w>":4119,"determined</w>":4120,"movie</w>":4121,"myster":4122,"thumb</w>":4123,"crew</w>":4124,"honest":4125,"gives</w>":4126,"pressing</w>":4127,"ands</w>":4128,"voices</w>":4129,"spa":4130,"john":4131,"details</w>":4132,"vag":4133,"twel":4134,"file</w>":4135,"haw":4136,"zzy</w>":4137,"vi</w>":4138,"wiped</w>":4139,"vani":4140,"simil":4141,"admitted</w>":4142,"julia</w>":4143,"report</w>":4144,"gy":4145,"unted</w>":4146,"accomp":4147,"tv</w>":4148,"extre":4149,"week":4150,"lim":4151,"four":4152,"village</w>":4153,"pee":4154,"stars</w>":4155,"incredi":4156,"flash</w>":4157,"hug</w>":4158,"rope</w>":4159,"ancient</w>":4160,"drinking</w>":4161,"particular</w>":4162,"orders</w>":4163,"roy":4164,"machine</w>":4165,"difference</w>":4166,"safety</w>":4167,"pin":4168,"tim</w>":4169,"square</w>":4170,"detec":4171,"pressure</w>":4172,"due</w>":4173,"study</w>":4174,"flowers</w>":4175,"origin":4176,"ior</w>":4177,"bell</w>":4178,"grate":4179,"ski":4180,"sexy</w>":4181,"curious</w>":4182,"lots</w>":4183,"murder</w>":4184,"chief</w>":4185,"oner</w>":4186,"gods</w>":4187,"york</w>":4188,"govern":4189,"aband":4190,"expecting</w>":4191,"pause</w>":4192,"comfort</w>":4193,"relaxed</w>":4194,"boun":4195,"log":4196,"collap":4197,"dragon</w>":4198,"knock</w>":4199,"trail</w>":4200,"elevator</w>":4201,"larly</w>":4202,"dare</w>":4203,"plain</w>":4204,"lee</w>":4205,"castle</w>":4206,"planet</w>":4207,"evidence</w>":4208,"dest":4209,"believ":4210,"custom":4211,"bastard</w>":4212,"main":4213,"intel":4214,"tained</w>":4215,"shri":4216,"sucked</w>":4217,"forty</w>":4218,"ial</w>":4219,"sant</w>":4220,"honest</w>":4221,"considering</w>":4222,"vor</w>":4223,"angel":4224,"consci":4225,"materi":4226,"sac":4227,"gul":4228,"mi</w>":4229,"iron</w>":4230,"sink</w>":4231,"ast</w>":4232,"brush</w>":4233,"bound</w>":4234,"write</w>":4235,"becoming</w>":4236,"heart":4237,"restaurant</w>":4238,"pon":4239,"english</w>":4240,"block</w>":4241,"illu":4242,"horror</w>":4243,"command</w>":4244,"gers</w>":4245,"failed</w>":4246,"respect</w>":4247,"iny</w>":4248,"members</w>":4249,"loss</w>":4250,"vis</w>":4251,"eliza":4252,"leader</w>":4253,"sliding</w>":4254,"chris</w>":4255,"bing</w>":4256,"gabriel</w>":4257,"including</w>":4258,"glared</w>":4259,"ghs</w>":4260,"whom</w>":4261,"poured</w>":4262,"ems</w>":4263,"tear</w>":4264,"jim</w>":4265,"elizabeth</w>":4266,"responded</w>":4267,"page</w>":4268,"cabin</w>":4269,"antly</w>":4270,"ald</w>":4271,"throwing</w>":4272,"papers</w>":4273,"twelve</w>":4274,"aten</w>":4275,"stands</w>":4276,"hurry</w>":4277,"tony</w>":4278,"badly</w>":4279,"kick</w>":4280,"major</w>":4281,"slip</w>":4282,"swept</w>":4283,"op</w>":4284,"laun":4285,"ttering</w>":4286,"sie</w>":4287,"blame</w>":4288,"amount</w>":4289,"inj":4290,"net</w>":4291,"ell":4292,"const":4293,"lur":4294,"wheel</w>":4295,"sma":4296,"devel":4297,"facing</w>":4298,"parts</w>":4299,"swear</w>":4300,"attr":4301,"nowhere</w>":4302,"jesus</w>":4303,"amon":4304,"electri":4305,"firmly</w>":4306,"furi":4307,"stered</w>":4308,"lightly</w>":4309,"heels</w>":4310,"disc":4311,"rou":4312,"beast</w>":4313,"fool</w>":4314,"cle":4315,"lift</w>":4316,"frame</w>":4317,"ssions</w>":4318,"rob":4319,"bel</w>":4320,"spirit</w>":4321,"million</w>":4322,"charac":4323,"marry</w>":4324,"glow</w>":4325,"hurried</w>":4326,"test":4327,"lovely</w>":4328,"vor":4329,"presi":4330,"porch</w>":4331,"garden</w>":4332,"holy</w>":4333,"lean</w>":4334,"cave</w>":4335,"enjoyed</w>":4336,"tips</w>":4337,"fixed</w>":4338,"emotion</w>":4339,"hat</w>":4340,"remain</w>":4341,"josh</w>":4342,"cigar":4343,"reg":4344,"sion":4345,"lined</w>":4346,"respond</w>":4347,"jor":4348,"armed</w>":4349,"ius</w>":4350,"tucked</w>":4351,"sche":4352,"marked</w>":4353,"damned</w>":4354,"ridic":4355,"parked</w>":4356,"pulse</w>":4357,"ecu":4358,"jane</w>":4359,"mr</w>":4360,"irrit":4361,"gest</w>":4362,"understanding</w>":4363,"ander</w>":4364,"zes</w>":4365,"meal</w>":4366,"accor":4367,"match</w>":4368,"zo":4369,"solid</w>":4370,"fear":4371,"pace</w>":4372,"floo":4373,"features</w>":4374,"bird</w>":4375,"ric</w>":4376,"bigger</w>":4377,"pa</w>":4378,"ron</w>":4379,"zation</w>":4380,"military</w>":4381,"higher</w>":4382,"mun":4383,"massive</w>":4384,"stronger</w>":4385,"ill":4386,"planning</w>":4387,"slight</w>":4388,"challen":4389,"release</w>":4390,"flat":4391,"noah</w>":4392,"backed</w>":4393,"girl":4394,"ha</w>":4395,"insisted</w>":4396,"mm</w>":4397,"struggled</w>":4398,"bble</w>":4399,"ffled</w>":4400,"when":4401,"snea":4402,"betra":4403,"ppy</w>":4404,"mmy</w>":4405,"engine</w>":4406,"ting":4407,"pulls</w>":4408,"zane</w>":4409,"travel</w>":4410,"spell</w>":4411,"thrust</w>":4412,"french</w>":4413,"sean</w>":4414,"ics</w>":4415,"frank</w>":4416,"government</w>":4417,"eling</w>":4418,"tables</w>":4419,"boyfriend</w>":4420,"crap</w>":4421,"signs</w>":4422,"winter</w>":4423,"upstairs</w>":4424,"threat</w>":4425,"steve</w>":4426,"american</w>":4427,"blur":4428,"orted</w>":4429,"liqu":4430,"duc":4431,"mbs</w>":4432,"ere":4433,"ouses</w>":4434,"olivia</w>":4435,"blanket</w>":4436,"accident</w>":4437,"plastic</w>":4438,"billy</w>":4439,"vac":4440,"earance</w>":4441,"norm":4442,"camera</w>":4443,"za</w>":4444,"whenever</w>":4445,"esc":4446,"uncomfortable</w>":4447,"snar":4448,"offici":4449,"inha":4450,"events</w>":4451,"embr":4452,"sharp":4453,"merely</w>":4454,"lace</w>":4455,"pet</w>":4456,"cared</w>":4457,"fed</w>":4458,"raise</w>":4459,"amy</w>":4460,"reasons</w>":4461,"briefly</w>":4462,"tional</w>":4463,"appear</w>":4464,"gran":4465,"ignore</w>":4466,"covering</w>":4467,"dep":4468,"library</w>":4469,"smelled</w>":4470,"anticip":4471,"fashi":4472,"eyebrow</w>":4473,"neath</w>":4474,"agent</w>":4475,"flames</w>":4476,"gain</w>":4477,"spring</w>":4478,"thighs</w>":4479,"gripped</w>":4480,"ade</w>":4481,"starts</w>":4482,"council</w>":4483,"choose</w>":4484,"connor</w>":4485,"bom":4486,"pleasant</w>":4487,"grateful</w>":4488,"capable</w>":4489,"intense</w>":4490,"puni":4491,"victor":4492,"asse":4493,"intment</w>":4494,"enter</w>":4495,"relax</w>":4496,"effect</w>":4497,"ousness</w>":4498,"relieved</w>":4499,"daddy</w>":4500,"gradu":4501,"startled</w>":4502,"sno":4503,"ridicul":4504,"joy</w>":4505,"blond</w>":4506,"woul":4507,"tively</w>":4508,"blew</w>":4509,"manag":4510,"cott":4511,"created</w>":4512,"thri":4513,"purse</w>":4514,"confusion</w>":4515,"nific":4516,"mid</w>":4517,"mia</w>":4518,"fired</w>":4519,"expen":4520,"convinced</w>":4521,"geous</w>":4522,"whel":4523,"tang":4524,"heavily</w>":4525,"profess":4526,"identi":4527,"kisses</w>":4528,"pile</w>":4529,"style</w>":4530,"equi":4531,"sage</w>":4532,"actions</w>":4533,"gentle":4534,"distur":4535,"slide</w>":4536,"balls</w>":4537,"reluc":4538,"underneath</w>":4539,"dag":4540,"weekend</w>":4541,"dancing</w>":4542,"audi":4543,"pure</w>":4544,"kal":4545,"gw":4546,"seven":4547,"ess":4548,"forgot</w>":4549,"inches</w>":4550,"thrown</w>":4551,"ki</w>":4552,"somebody</w>":4553,"tension</w>":4554,"shield</w>":4555,"rules</w>":4556,"organi":4557,"wre":4558,"sequ":4559,"survive</w>":4560,"han</w>":4561,"fab":4562,"indu":4563,"orange</w>":4564,"handsome</w>":4565,"guilt</w>":4566,"section</w>":4567,"half":4568,"would":4569,"passen":4570,"animals</w>":4571,"fan</w>":4572,"yne</w>":4573,"normally</w>":4574,"ripped</w>":4575,"cele":4576,"jeal":4577,"logy</w>":4578,"weak":4579,"jose":4580,"xing</w>":4581,"distant</w>":4582,"ferred</w>":4583,"shy</w>":4584,"ivy</w>":4585,"connection</w>":4586,"stopping</w>":4587,"birth":4588,"innocent</w>":4589,"assumed</w>":4590,"conten":4591,"blake</w>":4592,"radio</w>":4593,"received</w>":4594,"chairs</w>":4595,"clouds</w>":4596,"warned</w>":4597,"suspic":4598,"resting</w>":4599,"pissed</w>":4600,"hope":4601,"stranger</w>":4602,"tells</w>":4603,"mely</w>":4604,"wow</w>":4605,"deb":4606,"monster</w>":4607,"miser":4608,"shment</w>":4609,"dia</w>":4610,"fying</w>":4611,"widened</w>":4612,"active</w>":4613,"horrible</w>":4614,"ences</w>":4615,"rel</w>":4616,"accepted</w>":4617,"xi</w>":4618,"bags</w>":4619,"split</w>":4620,"del</w>":4621,"picking</w>":4622,"eption</w>":4623,"urge</w>":4624,"ris</w>":4625,"consu":4626,"bastian</w>":4627,"meaning</w>":4628,"communic":4629,"ference</w>":4630,"life":4631,"itting</w>":4632,"unfortunately</w>":4633,"rubbing</w>":4634,"cloud</w>":4635,"language</w>":4636,"kir":4637,"honor</w>":4638,"connected</w>":4639,"various</w>":4640,"tunnel</w>":4641,"stream</w>":4642,"qua":4643,"houses</w>":4644,"cassie</w>":4645,"ri</w>":4646,"celebr":4647,"duty</w>":4648,"author":4649,"ddled</w>":4650,"mple</w>":4651,"practice</w>":4652,"liter":4653,"ert</w>":4654,"tedly</w>":4655,"fier":4656,"wling</w>":4657,"fix</w>":4658,"yn":4659,"practically</w>":4660,"ona</w>":4661,"rows</w>":4662,"cash</w>":4663,"light":4664,"mortal</w>":4665,"upper</w>":4666,"cam":4667,"overwhel":4668,"plat":4669,"loudly</w>":4670,"gas":4671,"br</w>":4672,"treated</w>":4673,"rid</w>":4674,"current</w>":4675,"appreciate</w>":4676,"examin":4677,"carol":4678,"swir":4679,"buildings</w>":4680,"rever":4681,"taught</w>":4682,"gan":4683,"alright</w>":4684,"changing</w>":4685,"judge</w>":4686,"rescu":4687,"ocean</w>":4688,"kat":4689,"treat</w>":4690,"dropping</w>":4691,"blon":4692,"nights</w>":4693,"thank":4694,"clothing</w>":4695,"creatures</w>":4696,"ington</w>":4697,"sake</w>":4698,"powers</w>":4699,"similar</w>":4700,"washed</w>":4701,"nails</w>":4702,"hint</w>":4703,"pounding</w>":4704,"intended</w>":4705,"pregnant</w>":4706,"tery</w>":4707,"nal</w>":4708,"stumbled</w>":4709,"struc":4710,"increas":4711,"iz":4712,"occur":4713,"london</w>":4714,"aces</w>":4715,"damage</w>":4716,"ghtening</w>":4717,"wolves</w>":4718,"belief</w>":4719,"rocks</w>":4720,"progra":4721,"harry</w>":4722,"flipped</w>":4723,"puzz":4724,"searched</w>":4725,"vibr":4726,"shly</w>":4727,"breeze</w>":4728,"hugged</w>":4729,"robert</w>":4730,"tress</w>":4731,"ury</w>":4732,"plus</w>":4733,"lers</w>":4734,"president</w>":4735,"jared</w>":4736,"abby</w>":4737,"ful":4738,"fat</w>":4739,"sank</w>":4740,"pit</w>":4741,"bui":4742,"bond</w>":4743,"lucas</w>":4744,"cryst":4745,"witched</w>":4746,"awful</w>":4747,"stir":4748,"build</w>":4749,"notes</w>":4750,"grandmother</w>":4751,"smaller</w>":4752,"sky":4753,"soldier</w>":4754,"mum</w>":4755,"crack</w>":4756,"dawn</w>":4757,"beha":4758,"lungs</w>":4759,"chose</w>":4760,"balance</w>":4761,"killer</w>":4762,"nods</w>":4763,"nurse</w>":4764,"christian</w>":4765,"grant</w>":4766,"corridor</w>":4767,"walks</w>":4768,"honestly</w>":4769,"spotted</w>":4770,"announced</w>":4771,"silk</w>":4772,"temple</w>":4773,"avoi":4774,"hard":4775,"froze</w>":4776,"acle</w>":4777,"joke</w>":4778,"ms.</w>":4779,"ized</w>":4780,"ghost</w>":4781,"closet</w>":4782,"confe":4783,"satur":4784,"dar</w>":4785,"weather</w>":4786,"frozen</w>":4787,"girlfriend</w>":4788,"kev":4789,"students</w>":4790,"glancing</w>":4791,"patter":4792,"guns</w>":4793,"would've</w>":4794,"exist":4795,"lung</w>":4796,"ladies</w>":4797,"peered</w>":4798,"sexu":4799,"stled</w>":4800,"chamber</w>":4801,"tower</w>":4802,"fists</w>":4803,"20":4804,"prison</w>":4805,"trembling</w>":4806,"stair":4807,"civi":4808,"dit":4809,"circum":4810,"recognize</w>":4811,"ign</w>":4812,"ety</w>":4813,"lands</w>":4814,"princess</w>":4815,"tries</w>":4816,"professor</w>":4817,"wro":4818,"grim":4819,"photogra":4820,"points</w>":4821,"asm</w>":4822,"tial</w>":4823,"chain</w>":4824,"sebastian</w>":4825,"compar":4826,"begun</w>":4827,"gency</w>":4828,"desperately</w>":4829,"text</w>":4830,"suspected</w>":4831,"feed</w>":4832,"statement</w>":4833,"enjoying</w>":4834,"sau":4835,"julian</w>":4836,"harm</w>":4837,"mountains</w>":4838,"grabbing</w>":4839,"destroy</w>":4840,"chosen</w>":4841,"frustration</w>":4842,"conclu":4843,"day":4844,"marcus</w>":4845,"add</w>":4846,"stiff":4847,"returning</w>":4848,"causing</w>":4849,"cloth</w>":4850,"grand</w>":4851,"play":4852,"guilty</w>":4853,"cles</w>":4854,"everybody</w>":4855,"escaped</w>":4856,"larger</w>":4857,"filling</w>":4858,"spine</w>":4859,"abrup":4860,"pride</w>":4861,"downstairs</w>":4862,"faith</w>":4863,"jeff</w>":4864,"forgive</w>":4865,"explan":4866,"journey</w>":4867,"fate</w>":4868,"beating</w>":4869,"charles</w>":4870,"dless</w>":4871,"smel":4872,"climb</w>":4873,"bor</w>":4874,"rian</w>":4875,"post</w>":4876,"itor</w>":4877,"numbers</w>":4878,"regret</w>":4879,"cracked</w>":4880,"initi":4881,"manage</w>":4882,"rear</w>":4883,"confir":4884,"instinc":4885,"towel</w>":4886,"particularly</w>":4887,"lifting</w>":4888,"cken</w>":4889,"through":4890,"roa":4891,"sane</w>":4892,"andrew</w>":4893,"waste</w>":4894,"alarm</w>":4895,"ive</w>":4896,"stepping</w>":4897,"abruptly</w>":4898,"parted</w>":4899,"bench</w>":4900,"sensation</w>":4901,"invit":4902,"unex":4903,"plo":4904,"partner</w>":4905,"descen":4906,"deca":4907,"landing</w>":4908,"pack":4909,"whir":4910,"flin":4911,"ignoring</w>":4912,"skirt</w>":4913,"cream</w>":4914,"bunch</w>":4915,"stab":4916,"assist":4917,"encou":4918,"conc":4919,"smith</w>":4920,"correct</w>":4921,"tless</w>":4922,"comment</w>":4923,"mari":4924,"assured</w>":4925,"stunned</w>":4926,"ridiculous</w>":4927,"amb":4928,"mani":4929,"broo":4930,"whoever</w>":4931,"elbow</w>":4932,"bay</w>":4933,"idiot</w>":4934,"ava":4935,"sara</w>":4936,"mis":4937,"tilted</w>":4938,"gazed</w>":4939,"demons</w>":4940,"tender</w>":4941,"envel":4942,"gus</w>":4943,"ffs</w>":4944,"impati":4945,"gesture</w>":4946,"inner</w>":4947,"task</w>":4948,"scott</w>":4949,"intellig":4950,"greg":4951,"riding</w>":4952,"cher":4953,"dogs</w>":4954,"ath":4955,"therine</w>":4956,"cute</w>":4957,"snu":4958,"stones</w>":4959,"packed</w>":4960,"throughout</w>":4961,"opin":4962,"crou":4963,"heaven</w>":4964,"tugged</w>":4965,"cee":4966,"tore</w>":4967,"exhausted</w>":4968,"progre":4969,"garage</w>":4970,"bob</w>":4971,"tta</w>":4972,"nia</w>":4973,"friendly</w>":4974,"gle</w>":4975,"sofa</w>":4976,"erie</w>":4977,"claim</w>":4978,"ckles</w>":4979,"checking</w>":4980,"cale":4981,"brilli":4982,"rog":4983,"warrior</w>":4984,"wrote</w>":4985,"schedu":4986,"ax":4987,"cauti":4988,"dollars</w>":4989,"make":4990,"stances</w>":4991,"shooting</w>":4992,"popped</w>":4993,"gorgeous</w>":4994,"awkward</w>":4995,"pretend</w>":4996,"silly</w>":4997,"drifted</w>":4998,"rhy":4999,"ker":5000,"ler":5001,"dat":5002,"purple</w>":5003,"hissed</w>":5004,"grandfather</w>":5005,"ac</w>":5006,"experienced</w>":5007,"compe":5008,"blonde</w>":5009,"m.</w>":5010,"won</w>":5011,"birthday</w>":5012,"fury</w>":5013,"expl":5014,"scat":5015,"dug</w>":5016,"cting</w>":5017,"rule</w>":5018,"raced</w>":5019,"chocol":5020,"hundre":5021,"attacked</w>":5022,"sse</w>":5023,"bowl</w>":5024,"series</w>":5025,"painful</w>":5026,"compla":5027,"sheri":5028,"angs</w>":5029,"enter":5030,"cho</w>":5031,"las</w>":5032,"ko</w>":5033,"snat":5034,"approach</w>":5035,"traf":5036,"trapped</w>":5037,"appearance</w>":5038,"address</w>":5039,"remaining</w>":5040,"backward</w>":5041,"terrified</w>":5042,"traffic</w>":5043,"moves</w>":5044,"colored</w>":5045,"ends</w>":5046,"proper</w>":5047,"cem":5048,"senten":5049,"sku":5050,"omed</w>":5051,"price</w>":5052,"gil":5053,"toes</w>":5054,"matters</w>":5055,"sip</w>":5056,"spla":5057,"gut</w>":5058,"ugly</w>":5059,"elds</w>":5060,"televi":5061,"wher":5062,"total</w>":5063,"mask</w>":5064,"los</w>":5065,"embarrassed</w>":5066,"gage</w>":5067,"palms</w>":5068,"source</w>":5069,"sheet</w>":5070,"pillow</w>":5071,"aly":5072,"exit</w>":5073,"autom":5074,"sized</w>":5075,"ols</w>":5076,"obe":5077,"vehicle</w>":5078,"sensed</w>":5079,"ex</w>":5080,"pen</w>":5081,"pot</w>":5082,"vide":5083,"target</w>":5084,"secrets</w>":5085,"rev":5086,"paying</w>":5087,"tary</w>":5088,"meat</w>":5089,"advantage</w>":5090,"farther</w>":5091,"bra</w>":5092,"detective</w>":5093,"ole</w>":5094,"need":5095,"retri":5096,"suit":5097,"iety</w>":5098,"glea":5099,"volu":5100,"sophie</w>":5101,"alco":5102,"halfway</w>":5103,"cock</w>":5104,"inct</w>":5105,"eager</w>":5106,"painted</w>":5107,"seated</w>":5108,"access</w>":5109,"sping</w>":5110,"satisfied</w>":5111,"recently</w>":5112,"bowed</w>":5113,"dean</w>":5114,"destroyed</w>":5115,"hip</w>":5116,"frightened</w>":5117,"broad</w>":5118,"falls</w>":5119,"roman":5120,"skull</w>":5121,"wash</w>":5122,"sooner</w>":5123,"there":5124,"echoed</w>":5125,"map</w>":5126,"tristan</w>":5127,"letters</w>":5128,"muscle</w>":5129,"rence</w>":5130,"ope</w>":5131,"glimp":5132,"glowing</w>":5133,"zar":5134,"rode</w>":5135,"mn</w>":5136,"jo</w>":5137,"hawk</w>":5138,"cali":5139,"somewhat</w>":5140,"ckled</w>":5141,"cost</w>":5142,"straightened</w>":5143,"previous</w>":5144,"games</w>":5145,"member</w>":5146,"nit":5147,"possibility</w>":5148,"enor":5149,"nathan</w>":5150,"meli":5151,"foun":5152,"king":5153,"responsible</w>":5154,"surrounding</w>":5155,"guessed</w>":5156,"torn</w>":5157,"protection</w>":5158,"clan</w>":5159,"success":5160,"cutting</w>":5161,"marks</w>":5162,"convince</w>":5163,"caleb</w>":5164,"likes</w>":5165,"dining</w>":5166,"bott":5167,"frown</w>":5168,"exclaimed</w>":5169,"depen":5170,"flick":5171,"teacher</w>":5172,"trained</w>":5173,"eddie</w>":5174,"according</w>":5175,"sisters</w>":5176,"ggy</w>":5177,"bella</w>":5178,"asy</w>":5179,"defe":5180,"victoria</w>":5181,"legal</w>":5182,"footsteps</w>":5183,"mented</w>":5184,"cred":5185,"regular</w>":5186,"discuss</w>":5187,"version</w>":5188,"were":5189,"ob</w>":5190,"stern</w>":5191,"kic":5192,"cop</w>":5193,"sounding</w>":5194,"spark":5195,"manner</w>":5196,"holi":5197,"logical</w>":5198,"television</w>":5199,"kid":5200,"great":5201,"catching</w>":5202,"smu":5203,"cous":5204,"holds</w>":5205,"ple":5206,"curse</w>":5207,"mumbled</w>":5208,"tee</w>":5209,"unlike</w>":5210,"cousin</w>":5211,"forcing</w>":5212,"prison":5213,"favor</w>":5214,"yanked</w>":5215,"osity</w>":5216,"sav":5217,"kelly</w>":5218,"volun":5219,"tapped</w>":5220,"ourselves</w>":5221,"struction</w>":5222,"strike</w>":5223,"occurred</w>":5224,"andra</w>":5225,"behavi":5226,"ade":5227,"thigh</w>":5228,"lay":5229,"location</w>":5230,"degre":5231,"lucy</w>":5232,"dismi":5233,"vio":5234,"ills</w>":5235,"aman":5236,"land":5237,"tough</w>":5238,"gaz":5239,"thern</w>":5240,"images</w>":5241,"christ</w>":5242,"birth</w>":5243,"dian</w>":5244,"terror</w>":5245,"danny</w>":5246,"sympa":5247,"cage</w>":5248,"clearing</w>":5249,"ordinary</w>":5250,"challenge</w>":5251,"blank</w>":5252,"project</w>":5253,"stated</w>":5254,"orn</w>":5255,"spra":5256,"pple</w>":5257,"loe</w>":5258,"com</w>":5259,"sunlight</w>":5260,"tral</w>":5261,"deserve</w>":5262,"bbled</w>":5263,"zz</w>":5264,"unexp":5265,"event</w>":5266,"mare</w>":5267,"cigarette</w>":5268,"load</w>":5269,"replaced</w>":5270,"bored</w>":5271,"xi":5272,"oughly</w>":5273,"hec":5274,"contr":5275,"shade</w>":5276,"closely</w>":5277,"nau":5278,"home":5279,"drive":5280,"dily</w>":5281,"grinning</w>":5282,"slapped</w>":5283,"band":5284,"quarters</w>":5285,"dylan</w>":5286,"phy</w>":5287,"yards</w>":5288,"seless</w>":5289,"raising</w>":5290,"wic":5291,"existence</w>":5292,"gestured</w>":5293,"trace</w>":5294,"poten":5295,"brian</w>":5296,"shame</w>":5297,"fled</w>":5298,"morgan</w>":5299,"hannah</w>":5300,"vanished</w>":5301,"snorted</w>":5302,"johnny</w>":5303,"hunt</w>":5304,"leans</w>":5305,"drank</w>":5306,"hundreds</w>":5307,"glare</w>":5308,"senses</w>":5309,"confidence</w>":5310,"attached</w>":5311,"explanation</w>":5312,"universe</w>":5313,"ish</w>":5314,"admir":5315,"pidly</w>":5316,"chocolate</w>":5317,"pisto":5318,"record</w>":5319,"riley</w>":5320,"crime</w>":5321,"jeremy</w>":5322,"drake</w>":5323,"original</w>":5324,"serge":5325,"research</w>":5326,"decor":5327,"professi":5328,"by":5329,"medical</w>":5330,"pied</w>":5331,"palace</w>":5332,"bits</w>":5333,"crystal</w>":5334,"stand":5335,"ised</w>":5336,"anda</w>":5337,"loaded</w>":5338,"bread</w>":5339,"driveway</w>":5340,"julie</w>":5341,"birds</w>":5342,"devil</w>":5343,"declar":5344,"thless</w>":5345,"invited</w>":5346,"struggling</w>":5347,"smooth":5348,"stag":5349,"issue</w>":5350,"fence</w>":5351,"shakes</w>":5352,"former</w>":5353,"licked</w>":5354,"breast</w>":5355,"alice</w>":5356,"ghty</w>":5357,"property</w>":5358,"susan</w>":5359,"hitting</w>":5360,"ghten</w>":5361,"fellow</w>":5362,"agreement</w>":5363,"remembering</w>":5364,"jacob</w>":5365,"vent</w>":5366,"tray</w>":5367,"thetic</w>":5368,"settle</w>":5369,"thor</w>":5370,"remo":5371,"trusted</w>":5372,"blan":5373,"etern":5374,"saturday</w>":5375,"mist</w>":5376,"frow":5377,"ises</w>":5378,"liquid</w>":5379,"louder</w>":5380,"ssm":5381,"arm":5382,"sons</w>":5383,"bothered</w>":5384,"di</w>":5385,"dder</w>":5386,"tan</w>":5387,"exha":5388,"gown</w>":5389,"loving</w>":5390,"earl</w>":5391,"slowed</w>":5392,"damp</w>":5393,"cursed</w>":5394,"avail":5395,"assume</w>":5396,"bullet</w>":5397,"chloe</w>":5398,"maggie</w>":5399,"stroked</w>":5400,"rie</w>":5401,"social</w>":5402,"o'clock</w>":5403,"scar</w>":5404,"oring</w>":5405,"happiness</w>":5406,"arched</w>":5407,"hunting</w>":5408,"cake</w>":5409,"extended</w>":5410,"placing</w>":5411,"bows</w>":5412,"nodding</w>":5413,"eg":5414,"keeps</w>":5415,"predic":5416,"argue</w>":5417,"spor":5418,"centu":5419,"py":5420,"fea":5421,"cops</w>":5422,"teach</w>":5423,"batt":5424,"anybody</w>":5425,"accu":5426,"real":5427,"scru":5428,"zens</w>":5429,"sharply</w>":5430,"bled</w>":5431,"sue</w>":5432,"genu":5433,"kevin</w>":5434,"tense</w>":5435,"patted</w>":5436,"complic":5437,"craft</w>":5438,"thought":5439,"extremely</w>":5440,"lightning</w>":5441,"eral</w>":5442,"drinks</w>":5443,"deas</w>":5444,"squir":5445,"insul":5446,"execu":5447,"pment</w>":5448,"tantly</w>":5449,"ya":5450,"dra</w>":5451,"telep":5452,"athan</w>":5453,"dal</w>":5454,"conce":5455,"blind</w>":5456,"noted</w>":5457,"sheets</w>":5458,"ckle</w>":5459,"thousands</w>":5460,"stling</w>":5461,"jected</w>":5462,"chill</w>":5463,"shine</w>":5464,"dish</w>":5465,"eas</w>":5466,"available</w>":5467,"proof</w>":5468,"confident</w>":5469,"but":5470,"zom":5471,"jenny</w>":5472,"suspect</w>":5473,"wind":5474,"dave</w>":5475,"thus</w>":5476,"moon":5477,"passion</w>":5478,"mere</w>":5479,"department</w>":5480,"object</w>":5481,"cca</w>":5482,"brick</w>":5483,"drug</w>":5484,"racing</w>":5485,"required</w>":5486,"states</w>":5487,"abandoned</w>":5488,"helen</w>":5489,"pop</w>":5490,"material</w>":5491,"lotte</w>":5492,"brand":5493,"faction</w>":5494,"guests</w>":5495,"jects</w>":5496,"elia</w>":5497,"sunday</w>":5498,"covers</w>":5499,"punch</w>":5500,"jackson</w>":5501,"lled</w>":5502,"wy":5503,"sper":5504,"ggled</w>":5505,"approaching</w>":5506,"wrap</w>":5507,"horiz":5508,"virg":5509,"account</w>":5510,"clue</w>":5511,"ffin</w>":5512,"friday</w>":5513,"sexual</w>":5514,"society</w>":5515,"bour":5516,"goo":5517,"promp":5518,"ari</w>":5519,"pockets</w>":5520,"forming</w>":5521,"amanda</w>":5522,"non</w>":5523,"farm</w>":5524,"elli":5525,"forms</w>":5526,"afford</w>":5527,"expensive</w>":5528,"studying</w>":5529,"butt</w>":5530,"swing</w>":5531,"paint</w>":5532,"shane</w>":5533,"amber</w>":5534,"scienti":5535,"roger</w>":5536,"drag</w>":5537,"clay</w>":5538,"cook</w>":5539,"ris":5540,"shal":5541,"jonathan</w>":5542,"freedom</w>":5543,"ggs</w>":5544,"spect":5545,"bo</w>":5546,"mass</w>":5547,"ison</w>":5548,"disappointed</w>":5549,"rier</w>":5550,"para":5551,"jon</w>":5552,"advice</w>":5553,"passenger</w>":5554,"cards</w>":5555,"strode</w>":5556,"exposed</w>":5557,"enormous</w>":5558,"elt</w>":5559,"angle</w>":5560,"temper":5561,"sheriff</w>":5562,"grasp</w>":5563,"tness</w>":5564,"whispers</w>":5565,"sees</w>":5566,"inged</w>":5567,"ffy</w>":5568,"russi":5569,"rifle</w>":5570,"threatened</w>":5571,"wrink":5572,"otic</w>":5573,"shots</w>":5574,"emerged</w>":5575,"nervously</w>":5576,"circumstances</w>":5577,"dating</w>":5578,"insane</w>":5579,"curiosity</w>":5580,"tened</w>":5581,"code</w>":5582,"lab</w>":5583,"bes</w>":5584,"hen</w>":5585,"soo":5586,"ene</w>":5587,"blood":5588,"stion</w>":5589,"desert</w>":5590,"treas":5591,"patient</w>":5592,"bi</w>":5593,"esome</w>":5594,"sell</w>":5595,"deliber":5596,"halt</w>":5597,"raw</w>":5598,"offering</w>":5599,"becca</w>":5600,"mile</w>":5601,"moaned</w>":5602,"pad</w>":5603,"sensit":5604,"edith</w>":5605,"lately</w>":5606,"ress</w>":5607,"trick</w>":5608,"flame</w>":5609,"evan</w>":5610,"kidding</w>":5611,"sley</w>":5612,"encoura":5613,"background</w>":5614,"obli":5615,"brilliant</w>":5616,"display</w>":5617,"zard</w>":5618,"jim":5619,"opinion</w>":5620,"eleven</w>":5621,"cap</w>":5622,"brows</w>":5623,"feared</w>":5624,"robe</w>":5625,"charlotte</w>":5626,"moder":5627,"responsi":5628,"crete</w>":5629,"remind</w>":5630,"arely</w>":5631,"loves</w>":5632,"haired</w>":5633,"matthe":5634,"rin":5635,"shown</w>":5636,"amused</w>":5637,"runs</w>":5638,"bars</w>":5639,"commander</w>":5640,"patrick</w>":5641,"creep":5642,"plun":5643,"fake</w>":5644,"ti</w>":5645,"ideas</w>":5646,"conven":5647,"video</w>":5648,"mac</w>":5649,"wear":5650,"hopefully</w>":5651,"vet</w>":5652,"melissa</w>":5653,"squeeze</w>":5654,"informed</w>":5655,"violet</w>":5656,"rings</w>":5657,"revealed</w>":5658,"create</w>":5659,"stops</w>":5660,"clau":5661,"spending</w>":5662,"allowing</w>":5663,"magaz":5664,"weal":5665,"laura</w>":5666,"kati":5667,".m.</w>":5668,"jordan</w>":5669,"national</w>":5670,"bull":5671,"bleeding</w>":5672,"direct</w>":5673,"boxes</w>":5674,"drops</w>":5675,"shopping</w>":5676,"nerves</w>":5677,"impressed</w>":5678,"gasp</w>":5679,"appo":5680,"employ":5681,"collapsed</w>":5682,"tis</w>":5683,"grief</w>":5684,"martin</w>":5685,"grave</w>":5686,"ency</w>":5687,"photo</w>":5688,"mmer":5689,"overhead</w>":5690,"sandwic":5691,"painting</w>":5692,"shore</w>":5693,"newspa":5694,"vidu":5695,"agged</w>":5696,"bike</w>":5697,"gathering</w>":5698,"market</w>":5699,"charged</w>":5700,"individu":5701,"deal":5702,"scal":5703,"invisible</w>":5704,"proved</w>":5705,"lyn</w>":5706,"fabric</w>":5707,"eep</w>":5708,"compan":5709,"mad":5710,"answering</w>":5711,"trailed</w>":5712,"midnight</w>":5713,"precious</w>":5714,"adju":5715,"ellie</w>":5716,"rhyth":5717,"result</w>":5718,"solve</w>":5719,"link</w>":5720,"concrete</w>":5721,"archi":5722,"rett</w>":5723,"boring</w>":5724,"jewel":5725,"belle</w>":5726,"shining</w>":5727,"versity</w>":5728,"alle":5729,"icy</w>":5730,"benef":5731,"harsh</w>":5732,"ela":5733,"quit</w>":5734,"jessi":5735,"ori":5736,"lawyer</w>":5737,"ais":5738,"uniform</w>":5739,"belonged</w>":5740,"dle</w>":5741,"jace</w>":5742,"delicate</w>":5743,"detail</w>":5744,"deserved</w>":5745,"bren":5746,"valley</w>":5747,"intri":5748,"ho</w>":5749,"cough":5750,"royal</w>":5751,"tracks</w>":5752,"vulner":5753,"strained</w>":5754,"realizing</w>":5755,"laughs</w>":5756,"spare</w>":5757,"proce":5758,"changes</w>":5759,"scanned</w>":5760,"sport</w>":5761,"rushing</w>":5762,"veins</w>":5763,"witne":5764,"slipping</w>":5765,"tically</w>":5766,"cases</w>":5767,"cliff</w>":5768,"exploded</w>":5769,"famous</w>":5770,"appropri":5771,"trent</w>":5772,"alley</w>":5773,"exact</w>":5774,"ested</w>":5775,"snap</w>":5776,"provided</w>":5777,"spinning</w>":5778,"worl":5779,"jessica</w>":5780,"alli":5781,"yden</w>":5782,"eaten</w>":5783,"career</w>":5784,"guest</w>":5785,"colin</w>":5786,"onable</w>":5787,"drow":5788,"crawled</w>":5789,"shouting</w>":5790,"motioned</w>":5791,"----":5792,"gen</w>":5793,"pay":5794,"jesse</w>":5795,"pages</w>":5796,"terms</w>":5797,"singing</w>":5798,"katie</w>":5799,"ption</w>":5800,"religi":5801,"till</w>":5802,"lover</w>":5803,"lec":5804,"thusi":5805,"stained</w>":5806,"singly</w>":5807,"ghted</w>":5808,"mic</w>":5809,"airport</w>":5810,"mixed</w>":5811,"derek</w>":5812,"assass":5813,"aye</w>":5814,"kyle</w>":5815,"mama</w>":5816,"eness</w>":5817,"isy</w>":5818,"sarca":5819,"core</w>":5820,"victor</w>":5821,"pea":5822,"waving</w>":5823,"drugs</w>":5824,"rolls</w>":5825,"adven":5826,"sphere</w>":5827,"goodbye</w>":5828,"rome</w>":5829,"tracted</w>":5830,"exist</w>":5831,"collar</w>":5832,"mel</w>":5833,"exer":5834,"kat</w>":5835,"sday</w>":5836,"chy</w>":5837,"copy</w>":5838,"aceful</w>":5839,"ilities</w>":5840,"fairly</w>":5841,"shuddered</w>":5842,"lian</w>":5843,"trunk</w>":5844,"fanta":5845,"robo":5846,"work":5847,"owner</w>":5848,"enthusi":5849,"sick":5850,"remains</w>":5851,"consider":5852,"condition</w>":5853,"crash</w>":5854,"range</w>":5855,"branches</w>":5856,"pistol</w>":5857,"distracted</w>":5858,"diamon":5859,"actual</w>":5860,"wash":5861,"equipment</w>":5862,"lad</w>":5863,"student</w>":5864,"seats</w>":5865,"ist":5866,"chicken</w>":5867,"shivered</w>":5868,"liz</w>":5869,"paris</w>":5870,"achi":5871,"flicked</w>":5872,"screams</w>":5873,"basi":5874,"champ":5875,"resist</w>":5876,"fingertips</w>":5877,"icky</w>":5878,"colors</w>":5879,"ix</w>":5880,"dick</w>":5881,"arranged</w>":5882,"period</w>":5883,"mud</w>":5884,"hunger</w>":5885,"announ":5886,"knelt</w>":5887,"dim</w>":5888,"tals</w>":5889,"excell":5890,"close":5891,"sergeant</w>":5892,"alty</w>":5893,"embrace</w>":5894,"10</w>":5895,"rare</w>":5896,"stubb":5897,"rapidly</w>":5898,"ot":5899,"friend":5900,"nine":5901,"ville</w>":5902,"shaped</w>":5903,"shrug</w>":5904,"aring</w>":5905,"niture</w>":5906,"furniture</w>":5907,"hero</w>":5908,"grat":5909,"gues</w>":5910,"yly</w>":5911,"gavin</w>":5912,"signific":5913,"flushed</w>":5914,"height</w>":5915,"colon":5916,"lust</w>":5917,"credit</w>":5918,"cab</w>":5919,"swallow</w>":5920,"cement</w>":5921,"panties</w>":5922,"ro</w>":5923,"behavior</w>":5924,"pete</w>":5925,"joseph</w>":5926,"disappear</w>":5927,"shorts</w>":5928,"tant</w>":5929,"happily</w>":5930,"pilot</w>":5931,"courage</w>":5932,"arrive</w>":5933,"request</w>":5934,"kim</w>":5935,"edward</w>":5936,"families</w>":5937,"sold</w>":5938,"crack":5939,"milk</w>":5940,"speech</w>":5941,"corp":5942,"rout":5943,"flowing</w>":5944,"based</w>":5945,"incredible</w>":5946,"defense</w>":5947,"university</w>":5948,"officers</w>":5949,"matthew</w>":5950,"annie</w>":5951,"ral":5952,"kylie</w>":5953,"scattered</w>":5954,"dec":5955,"mara</w>":5956,"ators</w>":5957,"sentence</w>":5958,"sweat":5959,"jealous</w>":5960,"'em</w>":5961,"teasing</w>":5962,"choked</w>":5963,"wounds</w>":5964,"sits</w>":5965,"dg":5966,"beard</w>":5967,"protest</w>":5968,"digging</w>":5969,"emergency</w>":5970,"secure</w>":5971,"reveal</w>":5972,"nasty</w>":5973,"neck":5974,"lating</w>":5975,"trap</w>":5976,"jenni":5977,"greeted</w>":5978,"knocking</w>":5979,"glit":5980,"corners</w>":5981,"driven</w>":5982,"jennifer</w>":5983,"unusual</w>":5984,"knu":5985,"bile</w>":5986,"duke</w>":5987,"darling</w>":5988,"calmly</w>":5989,"annoyed</w>":5990,"sel</w>":5991,"tate</w>":5992,"tar</w>":5993,"dd</w>":5994,"warriors</w>":5995,"disbelief</w>":5996,"constant</w>":5997,"dragging</w>":5998,"marie</w>":5999,"ong":6000,"zer</w>":6001,"matic</w>":6002,"stuffed</w>":6003,"amusement</w>":6004,"tale</w>":6005,"gather</w>":6006,"shif":6007,"sty":6008,"ffing</w>":6009,"crept</w>":6010,"glor":6011,"deny</w>":6012,"child":6013,"argument</w>":6014,"derly</w>":6015,"house":6016,"ita</w>":6017,"remove</w>":6018,"furious</w>":6019,"oil</w>":6020,"anxious</w>":6021,"symbo":6022,"gear</w>":6023,"learning</w>":6024,"punched</w>":6025,"hin":6026,"excellent</w>":6027,"alien</w>":6028,"frank":6029,"ado":6030,"bac":6031,"ay</w>":6032,"begins</w>":6033,"ylor</w>":6034,"wrists</w>":6035,"mmered</w>":6036,"revealing</w>":6037,"ga</w>":6038,"hid</w>":6039,"priest</w>":6040,"jerk</w>":6041,"oes</w>":6042,"naturally</w>":6043,"arily</w>":6044,"ratt":6045,"breaths</w>":6046,"plant</w>":6047,"nightmare</w>":6048,"delicious</w>":6049,"claws</w>":6050,"rupt</w>":6051,"satisfaction</w>":6052,"fourth</w>":6053,"directions</w>":6054,"knight</w>":6055,"america</w>":6056,"ditional</w>":6057,"recall</w>":6058,"occupied</w>":6059,"ila</w>":6060,"survived</w>":6061,"stiff</w>":6062,"cerem":6063,"docu":6064,"crimin":6065,"contra":6066,"centuries</w>":6067,"dled</w>":6068,"hurting</w>":6069,"professional</w>":6070,"statu":6071,"coach</w>":6072,"minds</w>":6073,"skills</w>":6074,"kets</w>":6075,"barn</w>":6076,"show":6077,"ggest</w>":6078,"dealing</w>":6079,"teased</w>":6080,"colu":6081,"stry</w>":6082,"pity</w>":6083,"meredith</w>":6084,"biggest</w>":6085,"deon</w>":6086,"aria</w>":6087,"shortly</w>":6088,"dressing</w>":6089,"sidewalk</w>":6090,"rest":6091,"casual</w>":6092,"groan</w>":6093,"flash":6094,"syl":6095,"vement</w>":6096,"rob</w>":6097,"backs</w>":6098,"drag":6099,"hank</w>":6100,"shattered</w>":6101,"option</w>":6102,"red":6103,"scul":6104,"neg":6105,"carpet</w>":6106,"gabe</w>":6107,"chased</w>":6108,"blast</w>":6109,"term</w>":6110,"lux":6111,"progress</w>":6112,"biting</w>":6113,"tasted</w>":6114,"upward</w>":6115,"rescue</w>":6116,"exchange</w>":6117,"role</w>":6118,"acu":6119,"canc":6120,"ority</w>":6121,"impression</w>":6122,"fort</w>":6123,"pick":6124,"alec</w>":6125,"pha":6126,"circles</w>":6127,"jimmy</w>":6128,"ora</w>":6129,"fog</w>":6130,"bal</w>":6131,"crowded</w>":6132,"bath</w>":6133,"climbing</w>":6134,"wishing</w>":6135,"wounded</w>":6136,"eighteen</w>":6137,"dante</w>":6138,"flar":6139,"dude</w>":6140,"apologize</w>":6141,"kha":6142,"separate</w>":6143,"rate</w>":6144,"dull</w>":6145,"associ":6146,"ulti":6147,"swif":6148,"lia</w>":6149,"aver":6150,"sher":6151,"flow</w>":6152,"frequ":6153,"unknown</w>":6154,"tape</w>":6155,"emotional</w>":6156,"fangs</w>":6157,"forces</w>":6158,"provide</w>":6159,"winked</w>":6160,"veled</w>":6161,"justice</w>":6162,"vey</w>":6163,"doc</w>":6164,"st.</w>":6165,"taining</w>":6166,"dried</w>":6167,"bou":6168,"ier</w>":6169,"flir":6170,"momen":6171,"fur</w>":6172,"suck</w>":6173,"seful</w>":6174,"belong</w>":6175,"contents</w>":6176,"floating</w>":6177,"rese":6178,"gates</w>":6179,"dagger</w>":6180,"mper":6181,"cia</w>":6182,"ribs</w>":6183,"crossing</w>":6184,"sensitive</w>":6185,"grunted</w>":6186,"kane</w>":6187,"advi":6188,"nis</w>":6189,"estab":6190,"shout</w>":6191,"lobby</w>":6192,"tyler</w>":6193,"ented</w>":6194,"edges</w>":6195,"tank</w>":6196,"pus</w>":6197,"whipped</w>":6198,"struggle</w>":6199,"inny</w>":6200,"danced</w>":6201,"therefore</w>":6202,"dami":6203,"vern</w>":6204,"clutched</w>":6205,"roared</w>":6206,"nearest</w>":6207,"suggest</w>":6208,"influ":6209,"football</w>":6210,"tempor":6211,"wandered</w>":6212,"liar</w>":6213,"consequ":6214,"gained</w>":6215,"tipped</w>":6216,"inva":6217,"assi":6218,"demon":6219,"sional</w>":6220,"success</w>":6221,"tarily</w>":6222,"folks</w>":6223,"li</w>":6224,"emies</w>":6225,"bang":6226,"react</w>":6227,"stolen</w>":6228,"yep</w>":6229,"enemies</w>":6230,"rent</w>":6231,"hair":6232,"makeup</w>":6233,"ridge</w>":6234,"i.</w>":6235,"puts</w>":6236,"lions</w>":6237,"audience</w>":6238,"micro":6239,"fields</w>":6240,"eves</w>":6241,"roar</w>":6242,"wrapping</w>":6243,"trade</w>":6244,"shifting</w>":6245,"infec":6246,"illumin":6247,"centur":6248,"brave</w>":6249,"sch":6250,"upright</w>":6251,"tighter</w>":6252,"stretch</w>":6253,"owned</w>":6254,"serving</w>":6255,"zer":6256,"cts</w>":6257,"quinn</w>":6258,"cow":6259,"greater</w>":6260,"manu":6261,"vier</w>":6262,"brushing</w>":6263,"recent</w>":6264,"drawer</w>":6265,"literally</w>":6266,"community</w>":6267,"compli":6268,"attractive</w>":6269,"eth":6270,"healthy</w>":6271,"conveni":6272,"snake</w>":6273,"kicking</w>":6274,"stance</w>":6275,"jumping</w>":6276,"spy</w>":6277,"strip</w>":6278,"valu":6279,"scree":6280,"accent</w>":6281,"steal</w>":6282,"century</w>":6283,"anticipation</w>":6284,"breasts</w>":6285,"trevor</w>":6286,"kidna":6287,"chea":6288,"expan":6289,"bitter</w>":6290,"injured</w>":6291,"ars</w>":6292,"perman":6293,"mpled</w>":6294,"rarely</w>":6295,"switch</w>":6296,"inspec":6297,"movements</w>":6298,"buddy</w>":6299,"pir":6300,"dated</w>":6301,"cleaning</w>":6302,"assistant</w>":6303,"sta</w>":6304,"cabin":6305,"horizon</w>":6306,"monday</w>":6307,"fierce</w>":6308,"cocked</w>":6309,"ral</w>":6310,"sixteen</w>":6311,"ny":6312,"threatening</w>":6313,"winced</w>":6314,"fancy</w>":6315,"glances</w>":6316,"shows</w>":6317,"opens</w>":6318,"mo</w>":6319,"humor</w>":6320,"activ":6321,"located</w>":6322,"crashed</w>":6323,"hol</w>":6324,"cupped</w>":6325,"dee</w>":6326,"water":6327,"figu":6328,"mystery</w>":6329,"flower</w>":6330,"tha":6331,"lane</w>":6332,"repu":6333,"post":6334,"lished</w>":6335,"bolt</w>":6336,"reaches</w>":6337,"experim":6338,"camp":6339,"protected</w>":6340,"onic</w>":6341,"ceeded</w>":6342,"victim</w>":6343,"vels</w>":6344,"finn</w>":6345,"wardly</w>":6346,"closest</w>":6347,"brad</w>":6348,"absor":6349,"gent</w>":6350,"unexpected</w>":6351,"acknowle":6352,"positive</w>":6353,"jet</w>":6354,"signal</w>":6355,"lei":6356,"hook</w>":6357,"shiver</w>":6358,"sweethe":6359,"cloak</w>":6360,"casually</w>":6361,"yelling</w>":6362,"ssment</w>":6363,"corpor":6364,"popul":6365,"potential</w>":6366,"tour</w>":6367,"surance</w>":6368,"alert</w>":6369,"ducked</w>":6370,"character</w>":6371,"ara</w>":6372,"united</w>":6373,"hills</w>":6374,"bin":6375,"adrian</w>":6376,"science</w>":6377,"items</w>":6378,"route</w>":6379,"leapt</w>":6380,"clicked</w>":6381,"stock</w>":6382,"suspicious</w>":6383,"aid</w>":6384,"scary</w>":6385,"operation</w>":6386,"alexander</w>":6387,"holes</w>":6388,"complicated</w>":6389,"boot</w>":6390,"twin</w>":6391,"ann</w>":6392,"psycho":6393,"guide</w>":6394,"patch</w>":6395,"confirmed</w>":6396,"stroke</w>":6397,"missi":6398,"tag":6399,"erin</w>":6400,"wan</w>":6401,"citi":6402,"bry":6403,"throne</w>":6404,"solved</w>":6405,"disappointment</w>":6406,"patience</w>":6407,"laying</w>":6408,"ced":6409,"sadness</w>":6410,"appropriate</w>":6411,"glimpse</w>":6412,"content</w>":6413,"sum":6414,"fred</w>":6415,"lonely</w>":6416,"consciousness</w>":6417,"reven":6418,"existed</w>":6419,"basement</w>":6420,"dess</w>":6421,"string</w>":6422,"march</w>":6423,"endless</w>":6424,"fashion</w>":6425,"giggled</w>":6426,"eleg":6427,"reluctantly</w>":6428,"neighbor":6429,"elena</w>":6430,"arou":6431,"vast</w>":6432,"erup":6433,"deadly</w>":6434,"thful</w>":6435,"techn":6436,"permission</w>":6437,"frustrated</w>":6438,"ruin</w>":6439,"ma'":6440,"program</w>":6441,"supplies</w>":6442,"sideways</w>":6443,"sugar</w>":6444,"movies</w>":6445,"nest</w>":6446,"nope</w>":6447,"envelope</w>":6448,"berry</w>":6449,"saving</w>":6450,"crit":6451,"echo</w>":6452,"tney</w>":6453,"sweetheart</w>":6454,"alie</w>":6455,"dney</w>":6456,"vit":6457,"polite</w>":6458,"saf":6459,"modern</w>":6460,"duncan</w>":6461,"imagination</w>":6462,"jail</w>":6463,"accoun":6464,"swiftly</w>":6465,"ruined</w>":6466,"cock":6467,"ese</w>":6468,"prefer</w>":6469,"blocks</w>":6470,"suring</w>":6471,"growl</w>":6472,"armor</w>":6473,"lon</w>":6474,"sleeve</w>":6475,"backpack</w>":6476,"sharing</w>":6477,"violent</w>":6478,"glin":6479,"idan</w>":6480,"tub</w>":6481,"handful</w>":6482,"lest</w>":6483,"toe</w>":6484,"zza</w>":6485,"sively</w>":6486,"oper</w>":6487,"mason</w>":6488,"circled</w>":6489,"mates</w>":6490,"hmm</w>":6491,"garrett</w>":6492,"stagg":6493,"jay</w>":6494,"aloud</w>":6495,"attempted</w>":6496,"dant</w>":6497,"flor":6498,"bic":6499,"begged</w>":6500,"limbs</w>":6501,"settling</w>":6502,"lic</w>":6503,"bride</w>":6504,"backwards</w>":6505,"properly</w>":6506,"holly</w>":6507,"device</w>":6508,"chaos</w>":6509,"toi":6510,"moan</w>":6511,"mitch</w>":6512,"awa":6513,"blowing</w>":6514,"shell</w>":6515,"mercy</w>":6516,"grim</w>":6517,"disgust</w>":6518,"distri":6519,"astoni":6520,"pattern</w>":6521,"eable</w>":6522,"stole</w>":6523,"thick":6524,"heal</w>":6525,"perc":6526,"merci":6527,"om</w>":6528,"unconscious</w>":6529,"aidan</w>":6530,"chances</w>":6531,"swinging</w>":6532,"hired</w>":6533,"attitude</w>":6534,"dul":6535,"constantly</w>":6536,"flashing</w>":6537,"ential</w>":6538,"sin</w>":6539,"pical</w>":6540,"contem":6541,"alcohol</w>":6542,"arrival</w>":6543,"lisa</w>":6544,"dock</w>":6545,"clin":6546,"useless</w>":6547,"inge</w>":6548,"shiny</w>":6549,"ma'am</w>":6550,"divor":6551,"note":6552,"conditi":6553,"official</w>":6554,"swore</w>":6555,"dwar":6556,"rip</w>":6557,"health</w>":6558,"cart</w>":6559,"worthy</w>":6560,"owe</w>":6561,"central</w>":6562,"pretending</w>":6563,"meter</w>":6564,"book":6565,"reck":6566,"curve</w>":6567,"beg</w>":6568,"gwen</w>":6569,"fascin":6570,"eva</w>":6571,"broad":6572,"doubted</w>":6573,"agony</w>":6574,"discover</w>":6575,"figures</w>":6576,"decent</w>":6577,"vulnerable</w>":6578,"amaz":6579,"estate</w>":6580,"theory</w>":6581,"iting</w>":6582,"bobby</w>":6583,"ghters</w>":6584,"posing</w>":6585,"highway</w>":6586,"tribu":6587,"responsibility</w>":6588,"multi":6589,"weigh":6590,"min</w>":6591,"twisting</w>":6592,"tably</w>":6593,"sia</w>":6594,"andy</w>":6595,"territ":6596,"captured</w>":6597,"scrambled</w>":6598,"carriage</w>":6599,"iming</w>":6600,"mmering</w>":6601,"reflection</w>":6602,"witness</w>":6603,"mattered</w>":6604,"lac":6605,"commit":6606,"taylor</w>":6607,"aar":6608,"wicked</w>":6609,"coast</w>":6610,"unit</w>":6611,"blink</w>":6612,"sionally</w>":6613,"contained</w>":6614,"tire</w>":6615,"neu":6616,"tile</w>":6617,"itable</w>":6618,"whispering</w>":6619,"educ":6620,"dging</w>":6621,"cruel</w>":6622,"hollow</w>":6623,"kri":6624,"pare</w>":6625,"sten</w>":6626,"aning</w>":6627,"keeper</w>":6628,"tess</w>":6629,"judg":6630,"intent</w>":6631,"heartbeat</w>":6632,"presented</w>":6633,"lamp</w>":6634,"flies</w>":6635,"incredibly</w>":6636,"appears</w>":6637,"jess</w>":6638,"structure</w>":6639,"collection</w>":6640,"occasionally</w>":6641,"12</w>":6642,"loun":6643,"countered</w>":6644,"suffering</w>":6645,"impact</w>":6646,"fruit</w>":6647,"lum</w>":6648,"molly</w>":6649,"servant</w>":6650,"employe":6651,"romantic</w>":6652,"gideon</w>":6653,"classes</w>":6654,"squea":6655,"spirits</w>":6656,"balcon":6657,"pouring</w>":6658,"cleaned</w>":6659,"random</w>":6660,"ection</w>":6661,"safely</w>":6662,"planted</w>":6663,"annon</w>":6664,"babe</w>":6665,"zach</w>":6666,"traveled</w>":6667,"ku":6668,"photos</w>":6669,"vine</w>":6670,"justin</w>":6671,"prepare</w>":6672,"kinds</w>":6673,"hammer</w>":6674,"acts</w>":6675,"arrow</w>":6676,"declared</w>":6677,"unsure</w>":6678,"darkened</w>":6679,"ye":6680,"directed</w>":6681,"11</w>":6682,"frowning</w>":6683,"sets</w>":6684,"shrie":6685,"vants</w>":6686,"explosion</w>":6687,"maria</w>":6688,"ox":6689,"encer</w>":6690,"dges</w>":6691,"hesitation</w>":6692,"wanna</w>":6693,"darted</w>":6694,"stares</w>":6695,"jol":6696,"iler</w>":6697,"trial</w>":6698,"friendship</w>":6699,"elling</w>":6700,"branch</w>":6701,"awesome</w>":6702,"utter":6703,"possessed</w>":6704,"melo":6705,"sally</w>":6706,"torture</w>":6707,"percent</w>":6708,"treat":6709,"introduced</w>":6710,"highly</w>":6711,"successful</w>":6712,"purpo":6713,"ghtest</w>":6714,"crouched</w>":6715,"clutching</w>":6716,"flung</w>":6717,"wherever</w>":6718,"marble</w>":6719,"heated</w>":6720,"waking</w>":6721,"bies</w>":6722,"sophia</w>":6723,"brandon</w>":6724,"''</w>":6725,"personally</w>":6726,"elbows</w>":6727,"brand</w>":6728,"sucking</w>":6729,"servants</w>":6730,"bio":6731,"ali</w>":6732,"intru":6733,"violence</w>":6734,"pounded</w>":6735,"colonel</w>":6736,"melted</w>":6737,"ira</w>":6738,"stirred</w>":6739,"souls</w>":6740,"ano</w>":6741,"quarter</w>":6742,"sheer</w>":6743,"oping</w>":6744,"karen</w>":6745,"useful</w>":6746,"delivered</w>":6747,"fold</w>":6748,"foolish</w>":6749,"snatched</w>":6750,"lesson</w>":6751,"itali":6752,"snarled</w>":6753,"author</w>":6754,"cely</w>":6755,"sole</w>":6756,"helpless</w>":6757,"rat</w>":6758,"mai":6759,"director</w>":6760,"soaked</w>":6761,"ego</w>":6762,"traveling</w>":6763,"miranda</w>":6764,"males</w>":6765,"oul</w>":6766,"ador":6767,"colt</w>":6768,"issues</w>":6769,"slumped</w>":6770,"physically</w>":6771,"seek</w>":6772,"tre</w>":6773,"ano":6774,"inger</w>":6775,"compre":6776,"screwed</w>":6777,"grandma</w>":6778,"spilled</w>":6779,"childhood</w>":6780,"hooked</w>":6781,"suits</w>":6782,"techno":6783,"flan":6784,"magical</w>":6785,"plates</w>":6786,"compared</w>":6787,"intensity</w>":6788,"carved</w>":6789,"ppers</w>":6790,"mck":6791,"funeral</w>":6792,"teleph":6793,"terr":6794,"sor</w>":6795,"butter":6796,"discussion</w>":6797,"fortune</w>":6798,"mattress</w>":6799,"altern":6800,"protective</w>":6801,"dig</w>":6802,"screw</w>":6803,"intelligence</w>":6804,"maid</w>":6805,"sten":6806,"wester":6807,"mau":6808,"heather</w>":6809,"entering</w>":6810,"questioned</w>":6811,"eggs</w>":6812,"resu":6813,"mentally</w>":6814,"laptop</w>":6815,"schedule</w>":6816,"jax</w>":6817,"intention</w>":6818,"separated</w>":6819,"ester</w>":6820,"cheese</w>":6821,"lucien</w>":6822,"pounds</w>":6823,"shelf</w>":6824,"begging</w>":6825,"england</w>":6826,"rap":6827,"30</w>":6828,"temper</w>":6829,"healing</w>":6830,"facts</w>":6831,"curved</w>":6832,"trembled</w>":6833,"rain":6834,"dens</w>":6835,"nicole</w>":6836,"abilities</w>":6837,"tati":6838,"psychi":6839,"grade</w>":6840,"turing</w>":6841,"ava</w>":6842,"false</w>":6843,"manager</w>":6844,"surprisingly</w>":6845,"needing</w>":6846,"pan</w>":6847,"passage</w>":6848,"spat</w>":6849,"snow":6850,"shone</w>":6851,"ollen</w>":6852,"freaking</w>":6853,"thunder":6854,"stack</w>":6855,"pizza</w>":6856,"neil</w>":6857,"daily</w>":6858,"wire</w>":6859,"gym</w>":6860,"puzzled</w>":6861,"vincent</w>":6862,"shua</w>":6863,"alan</w>":6864,"trigger</w>":6865,"arrog":6866,"incident</w>":6867,"teenag":6868,"clung</w>":6869,"califor":6870,"locks</w>":6871,"solution</w>":6872,"neighborhood</w>":6873,"instructions</w>":6874,"client</w>":6875,"rily</w>":6876,"latest</w>":6877,"rice</w>":6878,"aire</w>":6879,"instinct</w>":6880,"complex</w>":6881,"owen</w>":6882,"sticking</w>":6883,"bid</w>":6884,"spreading</w>":6885,"rey</w>":6886,"dripping</w>":6887,"tommy</w>":6888,"licen":6889,"preferred</w>":6890,"lyn":6891,"oted</w>":6892,"blinking</w>":6893,"rounded</w>":6894,"incl":6895,"dation</w>":6896,"bron":6897,"tane":6898,"moonlight</w>":6899,"verti":6900,"ump":6901,"suite</w>":6902,"realm</w>":6903,"exchanged</w>":6904,"sought</w>":6905,"murdered</w>":6906,"chuckle</w>":6907,"caring</w>":6908,"rhythm</w>":6909,"majest":6910,"itual</w>":6911,"joining</w>":6912,"cooking</w>":6913,"inev":6914,"lawn</w>":6915,"tren":6916,"mex":6917,"wildly</w>":6918,"aline</w>":6919,"suffer</w>":6920,"tara</w>":6921,"aaron</w>":6922,"click</w>":6923,"pou":6924,"visited</w>":6925,"nings</w>":6926,"preparing</w>":6927,"inqu":6928,"shelter</w>":6929,"mexic":6930,"neighb":6931,"surren":6932,"curls</w>":6933,"controlled</w>":6934,"blocked</w>":6935,"hanna</w>":6936,"degree</w>":6937,"refuse</w>":6938,"helic":6939,"bullshit</w>":6940,"mug</w>":6941,"mysterious</w>":6942,"pinned</w>":6943,"newspaper</w>":6944,"crushed</w>":6945,"blown</w>":6946,"wipe</w>":6947,"carter</w>":6948,"sher</w>":6949,"odd":6950,"brings</w>":6951,"fain":6952,"salt</w>":6953,"ringing</w>":6954,"todd</w>":6955,"ban</w>":6956,"lexi</w>":6957,"habit</w>":6958,"demand</w>":6959,"volunte":6960,"switched</w>":6961,"tenant</w>":6962,"immediate</w>":6963,"swollen</w>":6964,"observed</w>":6965,"suffered</w>":6966,"knuckles</w>":6967,"freak</w>":6968,"tensed</w>":6969,"spencer</w>":6970,"ket</w>":6971,"greatest</w>":6972,"abu":6973,"holiday</w>":6974,"mond</w>":6975,"dumb</w>":6976,"super</w>":6977,"stroking</w>":6978,"grimaced</w>":6979,"witches</w>":6980,"pat</w>":6981,"staircase</w>":6982,"california</w>":6983,"stool</w>":6984,"mbl":6985,"exerci":6986,"ba</w>":6987,"kins</w>":6988,"example</w>":6989,"swords</w>":6990,"utterly</w>":6991,"warn</w>":6992,"courty":6993,"logi":6994,"ints</w>":6995,"raven</w>":6996,"activity</w>":6997,"balcony</w>":6998,"stable</w>":6999,"flowed</w>":7000,"included</w>":7001,"gary</w>":7002,"boar":7003,"yell</w>":7004,"din</w>":7005,"hopes</w>":7006,"bottles</w>":7007,"trash</w>":7008,"ppled</w>":7009,"will":7010,"ankle</w>":7011,"smirk</w>":7012,"nly</w>":7013,"orgasm</w>":7014,"sl":7015,"nerve</w>":7016,"rude</w>":7017,"cries</w>":7018,"suspici":7019,"inda</w>":7020,"sorts</w>":7021,"scowled</w>":7022,"candy</w>":7023,"murder":7024,"continues</w>":7025,"coinci":7026,"helicop":7027,"haven</w>":7028,"tched</w>":7029,"tearing</w>":7030,"roland</w>":7031,"dale</w>":7032,"season</w>":7033,"cotton</w>":7034,"repeat</w>":7035,"joshua</w>":7036,"nation</w>":7037,"hh":7038,"dipped</w>":7039,"anxiety</w>":7040,"twins</w>":7041,"spite</w>":7042,"isaac</w>":7043,"gentleman</w>":7044,"dreamed</w>":7045,"waters</w>":7046,"crown</w>":7047,"concentrate</w>":7048,"contract</w>":7049,"rig":7050,"jessie</w>":7051,"phra":7052,"obse":7053,"lieu":7054,"sadly</w>":7055,"pie</w>":7056,"tionally</w>":7057,"yor</w>":7058,"design</w>":7059,"twist</w>":7060,"remote</w>":7061,"booth</w>":7062,"drained</w>":7063,"ski</w>":7064,"foreign</w>":7065,"sps</w>":7066,"gloves</w>":7067,"geon</w>":7068,"andre":7069,"nichol":7070,"damon</w>":7071,"revenge</w>":7072,"dil":7073,"bbling</w>":7074,"produced</w>":7075,"offen":7076,"strangely</w>":7077,"wagon</w>":7078,"oming</w>":7079,"defend</w>":7080,"thirteen</w>":7081,"iri":7082,"pin</w>":7083,"emon</w>":7084,"sore</w>":7085,"oured</w>":7086,"mix</w>":7087,"investigation</w>":7088,"ladder</w>":7089,"stiffened</w>":7090,"spit</w>":7091,"classi":7092,"designed</w>":7093,"leo</w>":7094,"interview</w>":7095,"mper</w>":7096,"gripping</w>":7097,"daisy</w>":7098,"zie</w>":7099,"caroline</w>":7100,"buttons</w>":7101,"fia</w>":7102,"cautiously</w>":7103,"goddess</w>":7104,"related</w>":7105,"presu":7106,"slave</w>":7107,"avoiding</w>":7108,"mmm</w>":7109,"brit":7110,"plants</w>":7111,"boards</w>":7112,"nipple</w>":7113,"manipul":7114,"phe":7115,"authority</w>":7116,"swimming</w>":7117,"io</w>":7118,"guit":7119,"smirked</w>":7120,"lighting</w>":7121,"babies</w>":7122,"equally</w>":7123,"tops</w>":7124,"bitter":7125,"savan":7126,"seeking</w>":7127,"fourteen</w>":7128,"model</w>":7129,"jobs</w>":7130,"mus</w>":7131,"messages</w>":7132,"wiping</w>":7133,"courtyard</w>":7134,"secretary</w>":7135,"reflected</w>":7136,"hurts</w>":7137,"conference</w>":7138,"sweater</w>":7139,"finds</w>":7140,"miserable</w>":7141,"tangled</w>":7142,"traced</w>":7143,"pel":7144,"asha":7145,"stretching</w>":7146,"routine</w>":7147,"grounds</w>":7148,"scare</w>":7149,"chasing</w>":7150,"rocked</w>":7151,"cheap</w>":7152,"deni":7153,"prevent</w>":7154,"ousy</w>":7155,"leads</w>":7156,"mistress</w>":7157,"fork</w>":7158,"you":7159,"questioning</w>":7160,"aimed</w>":7161,"tity</w>":7162,"arse</w>":7163,"bilities</w>":7164,"thunder</w>":7165,"inf":7166,"syn":7167,"dane</w>":7168,"icient</w>":7169,"humi":7170,"privacy</w>":7171,"mors</w>":7172,"limp</w>":7173,"laws</w>":7174,"sole":7175,"results</w>":7176,"adren":7177,"unting</w>":7178,"cane</w>":7179,"platform</w>":7180,"damien</w>":7181,"arch":7182,"dreaming</w>":7183,"refer":7184,"bounced</w>":7185,"oa":7186,"eli</w>":7187,"senior</w>":7188,"sne":7189,"sixty</w>":7190,"ni</w>":7191,"taller</w>":7192,"gau":7193,"strate":7194,"records</w>":7195,"lauren</w>":7196,"greg</w>":7197,"counted</w>":7198,"restra":7199,"data</w>":7200,"angels</w>":7201,"ww":7202,"visi":7203,"regardless</w>":7204,"grasped</w>":7205,"aven":7206,"realised</w>":7207,"long":7208,"fail</w>":7209,"roads</w>":7210,"summ":7211,"devon</w>":7212,"cycle</w>":7213,"attend</w>":7214,"interior</w>":7215,"union</w>":7216,"ranch</w>":7217,"magazine</w>":7218,"efforts</w>":7219,"oliver</w>":7220,"luck":7221,"described</w>":7222,"protecting</w>":7223,"earned</w>":7224,"crashing</w>":7225,"empha":7226,"impressive</w>":7227,"bomb</w>":7228,"mson</w>":7229,"maged</w>":7230,"xie</w>":7231,"mighty</w>":7232,"divi":7233,"civili":7234,"value</w>":7235,"ett":7236,"charm</w>":7237,"sacrif":7238,"muffled</w>":7239,"bullets</w>":7240,"persu":7241,"tment</w>":7242,"d'":7243,"delight</w>":7244,"nik":7245,"basket</w>":7246,"wren":7247,"overwhelming</w>":7248,"descended</w>":7249,"southern</w>":7250,"epi":7251,"certainty</w>":7252,"entry</w>":7253,"currently</w>":7254,"ain</w>":7255,"atlan":7256,"alo":7257,"superi":7258,"indicated</w>":7259,"etr":7260,"ddling</w>":7261,"rene":7262,"examined</w>":7263,"ragged</w>":7264,"clean":7265,"smar":7266,"telephone</w>":7267,"reports</w>":7268,"exhaled</w>":7269,"toby</w>":7270,"liber":7271,"bush</w>":7272,"smoking</w>":7273,"cler":7274,"spin</w>":7275,"crawl</w>":7276,"vege":7277,"jill</w>":7278,"paper":7279,"invitation</w>":7280,"email</w>":7281,"atory</w>":7282,"scratched</w>":7283,"anie</w>":7284,"wizard</w>":7285,"bury</w>":7286,"intently</w>":7287,"player</w>":7288,"bend</w>":7289,"engaged</w>":7290,"veness</w>":7291,"bber</w>":7292,"floated</w>":7293,"sources</w>":7294,"agents</w>":7295,"curtain</w>":7296,"pic</w>":7297,"lifetime</w>":7298,"groups</w>":7299,"barrel</w>":7300,"heel</w>":7301,"fail":7302,"sser</w>":7303,"apple</w>":7304,"smells</w>":7305,"laurence</w>":7306,"glu":7307,"scor":7308,"color":7309,"michel":7310,"katherine</w>":7311,"whisk":7312,"utter</w>":7313,"reputation</w>":7314,"clan":7315,"abor":7316,"supply</w>":7317,"dley</w>":7318,"shove</w>":7319,"panting</w>":7320,"underground</w>":7321,"bat</w>":7322,"someday</w>":7323,"slamming</w>":7324,"aa":7325,"triump":7326,"nuts</w>":7327,"assign":7328,"confron":7329,"raz":7330,"decisions</w>":7331,"respec":7332,"tattoo</w>":7333,"shaft</w>":7334,"reasonable</w>":7335,"werewolf</w>":7336,"dollar</w>":7337,"companion</w>":7338,"kingdom</w>":7339,"stin</w>":7340,"youth</w>":7341,"rant</w>":7342,"vices</w>":7343,"species</w>":7344,"lieutenant</w>":7345,"fication</w>":7346,"sual</w>":7347,"travis</w>":7348,"sack</w>":7349,"toler":7350,"oak</w>":7351,"prisoner</w>":7352,"doctors</w>":7353,"nic</w>":7354,"az":7355,"bow":7356,"surprising</w>":7357,"gossi":7358,"recalled</w>":7359,"nail</w>":7360,"outer</w>":7361,"base":7362,"nan</w>":7363,"creating</w>":7364,"commen":7365,"handing</w>":7366,"defeat</w>":7367,"fortunate</w>":7368,"limited</w>":7369,"josie</w>":7370,"motor":7371,"options</w>":7372,"deliberately</w>":7373,"dur":7374,"files</w>":7375,"flashlight</w>":7376,"bore</w>":7377,"joy":7378,"20</w>":7379,"dared</w>":7380,"along":7381,"rebecca</w>":7382,"fears</w>":7383,"helmet</w>":7384,"necklace</w>":7385,"pine</w>":7386,"iden":7387,"goal</w>":7388,"commanded</w>":7389,"mbles</w>":7390,"hire</w>":7391,"fai":7392,"fires</w>":7393,"elise</w>":7394,"velvet</w>":7395,"sports</w>":7396,"000</w>":7397,"stephen</w>":7398,"nostri":7399,"try":7400,"sanc":7401,"compani":7402,"charming</w>":7403,"alongside</w>":7404,"tessa</w>":7405,"sins</w>":7406,"punishment</w>":7407,"believing</w>":7408,"flip</w>":7409,"quality</w>":7410,"extra":7411,"washington</w>":7412,"tossing</w>":7413,"accur":7414,"gentlemen</w>":7415,"thur":7416,"nicholas</w>":7417,"vagu":7418,"waitress</w>":7419,"cups</w>":7420,"flickered</w>":7421,"bourne</w>":7422,"comfortably</w>":7423,"margar":7424,"path":7425,"lings</w>":7426,"ation":7427,"tred</w>":7428,"tina</w>":7429,"acade":7430,"rafe</w>":7431,"request":7432,"stubborn</w>":7433,"rod</w>":7434,"automat":7435,"prayed</w>":7436,"addic":7437,"hearts</w>":7438,"anton":7439,"suici":7440,"swim</w>":7441,"hatred</w>":7442,"dishes</w>":7443,"atedly</w>":7444,"chica":7445,"thouse</w>":7446,"une":7447,"lender</w>":7448,"dragons</w>":7449,"deter":7450,"spider</w>":7451,"jah</w>":7452,"describe</w>":7453,"heaven":7454,"empire</w>":7455,"neat":7456,"prey</w>":7457,"brow":7458,"touri":7459,"clasped</w>":7460,"western</w>":7461,"increased</w>":7462,"victory</w>":7463,"kira</w>":7464,"popu":7465,"grabs</w>":7466,"workers</w>":7467,"russian</w>":7468,"pretended</w>":7469,"mister</w>":7470,"talent</w>":7471,"clever</w>":7472,"samu":7473,"shoe</w>":7474,"nap":7475,"lang":7476,"slap</w>":7477,"sandwich</w>":7478,"kay":7479,"walker</w>":7480,".com</w>":7481,"rocky</w>":7482,"continuing</w>":7483,"miracle</w>":7484,"adjusted</w>":7485,"pipe</w>":7486,"gust</w>":7487,"curtains</w>":7488,"ceremony</w>":7489,"chicago</w>":7490,"reads</w>":7491,"penetr":7492,"affected</w>":7493,"poison</w>":7494,"dusty</w>":7495,"dates</w>":7496,"bushes</w>":7497,"reported</w>":7498,"ashe</w>":7499,"rison</w>":7500,"cooper</w>":7501,"dig":7502,"juni":7503,"hugh</w>":7504,"pted</w>":7505,"guaran":7506,"squeezing</w>":7507,"thal</w>":7508,"acles</w>":7509,"green":7510,"popular</w>":7511,"phan":7512,"seemingly</w>":7513,"occasion</w>":7514,"aisle</w>":7515,"goodness</w>":7516,"sacrifice</w>":7517,"elder</w>":7518,"prayer</w>":7519,"ults</w>":7520,"cameras</w>":7521,"gued</w>":7522,"bull</w>":7523,"juice</w>":7524,"feeding</w>":7525,"guided</w>":7526,"sang</w>":7527,"knob</w>":7528,"amazed</w>":7529,"fairy</w>":7530,"bin</w>":7531,"among":7532,"adding</w>":7533,"buzz":7534,"atmo":7535,"financi":7536,"specific</w>":7537,"film</w>":7538,"custo":7539,"mol":7540,"ental</w>":7541,"vation</w>":7542,"crush</w>":7543,"amongst</w>":7544,"eager":7545,"sinking</w>":7546,"embarrassment</w>":7547,"seventeen</w>":7548,"brightly</w>":7549,"scars</w>":7550,"humili":7551,"worrying</w>":7552,"phones</w>":7553,"jenks</w>":7554,"gur":7555,"shelves</w>":7556,"savannah</w>":7557,"reacher</w>":7558,"angrily</w>":7559,"slender</w>":7560,"unlocked</w>":7561,"atop</w>":7562,"contempl":7563,"adult</w>":7564,"absolute</w>":7565,"eing</w>":7566,"pet":7567,"rem":7568,"afterward</w>":7569,"steam</w>":7570,"servation</w>":7571,"hits</w>":7572,"briti":7573,"goddamn</w>":7574,"anth":7575,"sniffed</w>":7576,"exciting</w>":7577,"eternity</w>":7578,"megan</w>":7579,"underwear</w>":7580,"pray</w>":7581,"rub</w>":7582,"monica</w>":7583,"in'</w>":7584,"british</w>":7585,"stefan</w>":7586,"protested</w>":7587,"cassi":7588,"matching</w>":7589,"territory</w>":7590,"thankfully</w>":7591,"nak</w>":7592,"locker</w>":7593,"intimate</w>":7594,"avoided</w>":7595,"anch":7596,"folding</w>":7597,"formal</w>":7598,"franti":7599,"outfit</w>":7600,"cuts</w>":7601,"parties</w>":7602,"wrinkled</w>":7603,"crun":7604,"county</w>":7605,"roughly</w>":7606,"glowed</w>":7607,"demanding</w>":7608,"joey</w>":7609,"collect</w>":7610,"betrayed</w>":7611,"ruth</w>":7612,"title</w>":7613,"studi":7614,"glaring</w>":7615,"mobile</w>":7616,"draped</w>":7617,"assault</w>":7618,"genuine</w>":7619,"knot</w>":7620,"darker</w>":7621,"ryder</w>":7622,"thera":7623,"stark</w>":7624,"fit":7625,"squinted</w>":7626,"fishing</w>":7627,"zack</w>":7628,"fade</w>":7629,"alia</w>":7630,"toilet</w>":7631,"tele":7632,"slim</w>":7633,"inher":7634,"pha</w>":7635,"avery</w>":7636,"vaguely</w>":7637,"prints</w>":7638,"wha":7639,"ynn</w>":7640,"electric</w>":7641,"beam</w>":7642,"fant":7643,"blades</w>":7644,"matched</w>":7645,"jenna</w>":7646,"ashamed</w>":7647,"15</w>":7648,"political</w>":7649,"nina</w>":7650,"cabinet</w>":7651,"mayor</w>":7652,"monsters</w>":7653,"homes</w>":7654,"lighter</w>":7655,"barked</w>":7656,"technology</w>":7657,"typical</w>":7658,"grumbled</w>":7659,"buying</w>":7660,"sunshine</w>":7661,"neatly</w>":7662,"ggling</w>":7663,"tube</w>":7664,"sipped</w>":7665,"dammit</w>":7666,"itive</w>":7667,"cushi":7668,"shr":7669,"rebel":7670,"spots</w>":7671,"occasional</w>":7672,"cottage</w>":7673,"pher</w>":7674,"railing</w>":7675,"nostrils</w>":7676,"mat</w>":7677,"dge":7678,"ankles</w>":7679,"lery</w>":7680,"oundings</w>":7681,"jean</w>":7682,"gazing</w>":7683,"dread</w>":7684,"individual</w>":7685,"alled</w>":7686,"flared</w>":7687,"inhaled</w>":7688,"shaky</w>":7689,"surroundings</w>":7690,"compas":7691,"rights</w>":7692,"weakness</w>":7693,"flooded</w>":7694,"adrenaline</w>":7695,"ada</w>":7696,"pitch</w>":7697,"garion</w>":7698,"assuming</w>":7699,"floors</w>":7700,"saman":7701,"mar</w>":7702,"frantically</w>":7703,"sometime</w>":7704,"louis</w>":7705,"determination</w>":7706,"instructed</w>":7707,"twitched</w>":7708,"hunters</w>":7709,"fbi</w>":7710,"emplo":7711,"comforting</w>":7712,"sneak</w>":7713,"fantasy</w>":7714,"dominic</w>":7715,"destruction</w>":7716,"media</w>":7717,"zoe</w>":7718,"suspicion</w>":7719,"package</w>":7720,"shirts</w>":7721,"internet</w>":7722,"cross":7723,"grac":7724,"zzled</w>":7725,"stake</w>":7726,"corpse</w>":7727,"gregor</w>":7728,"lew":7729,"estim":7730,"awar":7731,"german</w>":7732,"irritated</w>":7733,"marched</w>":7734,"ii</w>":7735,"aggre":7736,"ulty</w>":7737,"cameron</w>":7738,"areas</w>":7739,"slightest</w>":7740,"noticing</w>":7741,"ur</w>":7742,"laced</w>":7743,"oddly</w>":7744,"kies</w>":7745,"elegant</w>":7746,"dish":7747,"shoving</w>":7748,"dison</w>":7749,"benefit</w>":7750,"fading</w>":7751,"stripped</w>":7752,"subtle</w>":7753,"shallow</w>":7754,"instinctively</w>":7755,"eden</w>":7756,"samantha</w>":7757,"steering</w>":7758,"guardian</w>":7759,"numb</w>":7760,"tap</w>":7761,"shouts</w>":7762,"daemon</w>":7763,"doll</w>":7764,"14</w>":7765,"fireplace</w>":7766,"vest</w>":7767,"diamond</w>":7768,"suppor":7769,"vig":7770,"tful</w>":7771,"scape</w>":7772,"midst</w>":7773,"intend</w>":7774,"xon</w>":7775,"schi":7776,"giggle</w>":7777,"catherine</w>":7778,"peaceful</w>":7779,"fits</w>":7780,"slick</w>":7781,"jase</w>":7782,"visiting</w>":7783,"blushed</w>":7784,"appointment</w>":7785,"abi":7786,"remark":7787,"status</w>":7788,"standard</w>":7789,"selfish</w>":7790,"ram</w>":7791,"approval</w>":7792,"eh</w>":7793,"eff":7794,"arch</w>":7795,"helicopter</w>":7796,"collected</w>":7797,"tations</w>":7798,"pierce</w>":7799,"key":7800,"assure</w>":7801,"abs":7802,"eps</w>":7803,"angled</w>":7804,"peering</w>":7805,"amelia</w>":7806,"purchase</w>":7807,"affair</w>":7808,"pathetic</w>":7809,"ware":7810,"samuel</w>":7811,"grocer":7812,"developed</w>":7813,"blankets</w>":7814,"realization</w>":7815,"soothing</w>":7816,"revel":7817,"awe</w>":7818,"granted</w>":7819,"basically</w>":7820,"receive</w>":7821,"meters</w>":7822,"ji":7823,"poked</w>":7824,"gasping</w>":7825,"completed</w>":7826,"ques</w>":7827,"sealed</w>":7828,"sper</w>":7829,"smashed</w>":7830,"hei":7831,"chat</w>":7832,"daylight</w>":7833,"committed</w>":7834,"ounce</w>":7835,"summon":7836,"steadily</w>":7837,"zzie</w>":7838,"hop":7839,"shre":7840,"ele</w>":7841,"attor":7842,"panicked</w>":7843,"sydney</w>":7844,"mounted</w>":7845,"momentarily</w>":7846,"zzle</w>":7847,"si</w>":7848,"worlds</w>":7849,"precisely</w>":7850,"arguing</w>":7851,"sition</w>":7852,"phs</w>":7853,"xa":7854,"luis</w>":7855,"painfully</w>":7856,"maneu":7857,"temperature</w>":7858,"minor</w>":7859,"sedu":7860,"sandy</w>":7861,"mpered</w>":7862,"propped</w>":7863,"measure</w>":7864,"ming":7865,"polished</w>":7866,"a.</w>":7867,"victi":7868,"meg</w>":7869,"alized</w>":7870,"staggered</w>":7871,"nett</w>":7872,"quo":7873,"succe":7874,"choices</w>":7875,"cities</w>":7876,"13</w>":7877,"lump</w>":7878,"candle</w>":7879,"washing</w>":7880,"exasper":7881,"natalie</w>":7882,"firing</w>":7883,"thur</w>":7884,"gap</w>":7885,"deliver</w>":7886,"candles</w>":7887,"wel</w>":7888,"engine":7889,"strangers</w>":7890,"latter</w>":7891,"flush</w>":7892,"counting</w>":7893,"achers</w>":7894,"dozens</w>":7895,"baseball</w>":7896,"web":7897,"sticks</w>":7898,"depths</w>":7899,"whirled</w>":7900,"dumped</w>":7901,"vivi":7902,"simul":7903,"beaten</w>":7904,"goti":7905,"tanner</w>":7906,"guitar</w>":7907,"grin":7908,"wishes</w>":7909,"leaped</w>":7910,"influence</w>":7911,"era</w>":7912,"electr":7913,"emper":7914,"vacation</w>":7915,"aiden</w>":7916,"mansion</w>":7917,"atmosphere</w>":7918,"afri":7919,"skill</w>":7920,"tiger</w>":7921,"wheels</w>":7922,"cade</w>":7923,"robin</w>":7924,"bearing</w>":7925,"significant</w>":7926,"basic</w>":7927,"pitched</w>":7928,"phil</w>":7929,"sanity</w>":7930,"pound</w>":7931,"jar</w>":7932,"spray</w>":7933,"politely</w>":7934,"tis":7935,"inspir":7936,"cass":7937,"cain</w>":7938,"luckily</w>":7939,"odds</w>":7940,"musi":7941,"spear</w>":7942,"troops</w>":7943,"rocking</w>":7944,"attempting</w>":7945,"zone</w>":7946,"combination</w>":7947,"paced</w>":7948,"league</w>":7949,"ada":7950,"consumed</w>":7951,"wis":7952,"wasted</w>":7953,"blur</w>":7954,"epti":7955,"legi":7956,"elyn</w>":7957,"leap</w>":7958,"parker</w>":7959,"attracted</w>":7960,"chuck</w>":7961,"skirts</w>":7962,"absence</w>":7963,"anya</w>":7964,"bothering</w>":7965,"lowering</w>":7966,"argued</w>":7967,"serena</w>":7968,"nes</w>":7969,"beth":7970,"advanced</w>":7971,"nora</w>":7972,"snapping</w>":7973,"secu":7974,"recovered</w>":7975,"uttered</w>":7976,"roman</w>":7977,"blush</w>":7978,"thanked</w>":7979,"stit":7980,"objec":7981,"pol":7982,"coughed</w>":7983,"jones</w>":7984,"views</w>":7985,"aries</w>":7986,"proph":7987,"rin</w>":7988,"eyeli":7989,"conver":7990,"automatically</w>":7991,"spon":7992,"statue</w>":7993,"folk</w>":7994,"elding</w>":7995,"massa":7996,"mour":7997,"net":7998,"leah</w>":7999,"swirling</w>":8000,"ckling</w>":8001,"eyelids</w>":8002,"agne</w>":8003,"tug</w>":8004,"headache</w>":8005,"gritted</w>":8006,"frantic</w>":8007,"chor":8008,"blurted</w>":8009,"blocking</w>":8010,"kor":8011,"hopped</w>":8012,"tionless</w>":8013,"identity</w>":8014,"contain":8015,"reception</w>":8016,"monitor</w>":8017,"fifth</w>":8018,"horn</w>":8019,"equal</w>":8020,"chad</w>":8021,"anish</w>":8022,"tavi</w>":8023,"ghosts</w>":8024,"unks</w>":8025,"sympathy</w>":8026,"judgment</w>":8027,"coa":8028,"terribly</w>":8029,"campus</w>":8030,"overwhelmed</w>":8031,"clari":8032,"destination</w>":8033,"ffle</w>":8034,"breaks</w>":8035,"songs</w>":8036,"chains</w>":8037,"lana</w>":8038,"boston</w>":8039,"appe":8040,"texas</w>":8041,"cheer":8042,"encounter</w>":8043,"apparent</w>":8044,"magn":8045,"anytime</w>":8046,"channel</w>":8047,"gang</w>":8048,"wallet</w>":8049,"alpha</w>":8050,"fridge</w>":8051,"ensure</w>":8052,"fitting</w>":8053,"lingering</w>":8054,"bbit</w>":8055,"stored</w>":8056,"histor":8057,"cup":8058,"redu":8059,"melody</w>":8060,"toast</w>":8061,"becomes</w>":8062,"inity</w>":8063,"imagin":8064,"ham":8065,"sque":8066,"lev":8067,"muse":8068,"bage</w>":8069,"victims</w>":8070,"sparhawk</w>":8071,"absen":8072,"violently</w>":8073,"bbles</w>":8074,"tugging</w>":8075,"tance</w>":8076,"centre</w>":8077,"penny</w>":8078,"tatto":8079,"mouse</w>":8080,"greeting</w>":8081,"wandering</w>":8082,"18":8083,"haunted</w>":8084,"mas":8085,"dresses</w>":8086,"seat":8087,"neat</w>":8088,"compound</w>":8089,"confli":8090,"combat</w>":8091,"uneasy</w>":8092,"horrified</w>":8093,"focu":8094,"que":8095,"a.m.</w>":8096,"resist":8097,"erection</w>":8098,"noises</w>":8099,"rhe":8100,"roy</w>":8101,"zel</w>":8102,"ism</w>":8103,"affection</w>":8104,"bucket</w>":8105,"breathless</w>":8106,"cure</w>":8107,"navy</w>":8108,"nonsense</w>":8109,"fon":8110,"enne</w>":8111,"isa</w>":8112,"hem</w>":8113,"yaw":8114,"lifel":8115,"ket":8116,"ji</w>":8117,"survival</w>":8118,"yi":8119,"electricity</w>":8120,"zombie</w>":8121,"stily</w>":8122,"mares</w>":8123,"zero</w>":8124,"sided</w>":8125,"humanity</w>":8126,"jerry</w>":8127,"carl</w>":8128,"outra":8129,"illing</w>":8130,"jungle</w>":8131,"angie</w>":8132,"ralph</w>":8133,"pois":8134,"dame</w>":8135,"sev":8136,"crawling</w>":8137,"gia</w>":8138,"phil":8139,"majesty</w>":8140,"curiously</w>":8141,"despair</w>":8142,"disturbed</w>":8143,"box":8144,"striking</w>":8145,"swift</w>":8146,"mused</w>":8147,"web</w>":8148,"throbbing</w>":8149,"choo":8150,"framed</w>":8151,"som</w>":8152,"bud":8153,"seized</w>":8154,"generally</w>":8155,"gail</w>":8156,"consequences</w>":8157,"trailer</w>":8158,"disease</w>":8159,"shot":8160,"champagne</w>":8161,"treasure</w>":8162,"inven":8163,"shado":8164,"needle</w>":8165,"flinched</w>":8166,"braced</w>":8167,"stealing</w>":8168,"criminal</w>":8169,"softened</w>":8170,"tox":8171,"selling</w>":8172,"gene</w>":8173,"dling</w>":8174,"jeep</w>":8175,"muscu":8176,"yton</w>":8177,"dallas</w>":8178,"escort</w>":8179,"ffling</w>":8180,"mouths</w>":8181,".s.</w>":8182,"june</w>":8183,"host</w>":8184,"grandpa</w>":8185,"maintain</w>":8186,"tings</w>":8187,"mirr":8188,"adventure</w>":8189,"services</w>":8190,"regarded</w>":8191,"tum</w>":8192,"decl":8193,"ticket</w>":8194,"barbar":8195,"kara</w>":8196,"gifts</w>":8197,"beck":8198,"jai":8199,"license</w>":8200,"elijah</w>":8201,"revol":8202,"beings</w>":8203,"wei":8204,"destiny</w>":8205,"twink":8206,"distraction</w>":8207,"joking</w>":8208,"exhi":8209,"wood":8210,"brac":8211,"licking</w>":8212,"hurri":8213,"defi":8214,"anthony</w>":8215,"panel</w>":8216,"border</w>":8217,"emperor</w>":8218,"arthur</w>":8219,"nov":8220,"conversations</w>":8221,"accompani":8222,"dimen":8223,"ram":8224,"trous":8225,"izzy</w>":8226,"effects</w>":8227,"deserted</w>":8228,"dium</w>":8229,"print</w>":8230,"urged</w>":8231,"treatment</w>":8232,"skinny</w>":8233,"inting</w>":8234,"accompanied</w>":8235,"envir":8236,"convic":8237,"rac":8238,"failure</w>":8239,"pour</w>":8240,"unique</w>":8241,"lunged</w>":8242,"sweeping</w>":8243,"magnific":8244,"rot</w>":8245,"pacing</w>":8246,"treating</w>":8247,"jar":8248,"downtown</w>":8249,"xture</w>":8250,"gravel</w>":8251,"curl</w>":8252,"rusty</w>":8253,"sprang</w>":8254,"elabor":8255,"annoying</w>":8256,"illness</w>":8257,"hauled</w>":8258,"wealth</w>":8259,"outw":8260,"pron":8261,"desperation</w>":8262,"toss</w>":8263,"twit":8264,"inese</w>":8265,"squad</w>":8266,"teenth</w>":8267,"lip":8268,"wary</w>":8269,"rum":8270,"regarding</w>":8271,"clients</w>":8272,"zzed</w>":8273,"drifting</w>":8274,"immortal</w>":8275,"barrier</w>":8276,"neighbors</w>":8277,"hovering</w>":8278,"rand":8279,"annoy":8280,"valuable</w>":8281,"locking</w>":8282,"dizzy</w>":8283,"suitcase</w>":8284,"anor</w>":8285,"indepen":8286,"tempted</w>":8287,"notebook</w>":8288,"corn</w>":8289,"discussed</w>":8290,"dresser</w>":8291,"strands</w>":8292,"surge</w>":8293,"soup</w>":8294,"casting</w>":8295,"stalked</w>":8296,"gradually</w>":8297,"rumors</w>":8298,"nick":8299,"italian</w>":8300,"customers</w>":8301,"reminding</w>":8302,"finishing</w>":8303,"chinese</w>":8304,"clapped</w>":8305,"croo":8306,"speaks</w>":8307,"divorce</w>":8308,"possession</w>":8309,"scale</w>":8310,"disappearing</w>":8311,"aim</w>":8312,"numer":8313,"surve":8314,"madel":8315,"instincts</w>":8316,"fluttered</w>":8317,"ctor</w>":8318,"glory</w>":8319,"read":8320,"carlos</w>":8321,"hesitate</w>":8322,"noble</w>":8323,"scratch</w>":8324,"stabbed</w>":8325,"sob</w>":8326,"....":8327,"muscular</w>":8328,"posure</w>":8329,"negoti":8330,"compet":8331,"engag":8332,"worries</w>":8333,"erupted</w>":8334,"withdrew</w>":8335,"medicine</w>":8336,"illa</w>":8337,"topic</w>":8338,"pest</w>":8339,"ids</w>":8340,"rex</w>":8341,"explaining</w>":8342,"longing</w>":8343,"apology</w>":8344,"wink</w>":8345,"helps</w>":8346,"nightmares</w>":8347,"thrilled</w>":8348,"steven</w>":8349,"margaret</w>":8350,"syst":8351,"fen":8352,"boats</w>":8353,"crimson</w>":8354,"tacti":8355,"sket":8356,"acqua":8357,"volume</w>":8358,"displa":8359,"creek</w>":8360,"powder</w>":8361,"owed</w>":8362,"nette</w>":8363,"invite</w>":8364,"eron</w>":8365,"ashley</w>":8366,"weary</w>":8367,"dity</w>":8368,"philo":8369,"lingered</w>":8370,"drift</w>":8371,"daw":8372,"burns</w>":8373,"article</w>":8374,"belo":8375,"concentrated</w>":8376,"healed</w>":8377,"lance</w>":8378,"vehicles</w>":8379,"packing</w>":8380,"bills</w>":8381,"suv</w>":8382,"guarded</w>":8383,"capture</w>":8384,"suggestion</w>":8385,"disor":8386,"sleeves</w>":8387,"waiter</w>":8388,"isabella</w>":8389,"tapping</w>":8390,"junior</w>":8391,"permanent</w>":8392,"50</w>":8393,"dove</w>":8394,"rein":8395,"landscape</w>":8396,"scur":8397,"piercing</w>":8398,"iley</w>":8399,"thoroughly</w>":8400,"demonstr":8401,"tune</w>":8402,"saint</w>":8403,"willow</w>":8404,"boul":8405,"assho":8406,"cats</w>":8407,"intelligent</w>":8408,"watch":8409,"wider</w>":8410,"uses</w>":8411,"environ":8412,"perform":8413,"meless</w>":8414,"remarked</w>":8415,"atri":8416,"mrs</w>":8417,"counter":8418,"fragi":8419,"gossip</w>":8420,"ctive</w>":8421,"seal</w>":8422,"cam</w>":8423,"jasmine</w>":8424,"soap</w>":8425,"construction</w>":8426,"launched</w>":8427,"mpy</w>":8428,"hugging</w>":8429,"fragile</w>":8430,"pole</w>":8431,"personality</w>":8432,"teaching</w>":8433,"stically</w>":8434,"nell</w>":8435,"jude</w>":8436,"isol":8437,"body":8438,"graham</w>":8439,"pearl</w>":8440,"egg</w>":8441,"pies</w>":8442,"guessing</w>":8443,"rand</w>":8444,"gene":8445,"suicide</w>":8446,"lazy</w>":8447,"testing</w>":8448,"cells</w>":8449,"yu":8450,"cool":8451,"differently</w>":8452,"average</w>":8453,"minister</w>":8454,"acciden":8455,"sies</w>":8456,"winning</w>":8457,"fuel</w>":8458,"seeming</w>":8459,"sep":8460,"kable</w>":8461,"exited</w>":8462,"pleaded</w>":8463,"arrested</w>":8464,"hem":8465,"rail</w>":8466,"pec":8467,"peeked</w>":8468,"blouse</w>":8469,"ony":8470,"temporary</w>":8471,"curling</w>":8472,"eria</w>":8473,"torso</w>":8474,"ribb":8475,"recover</w>":8476,"eleanor</w>":8477,"thumbs</w>":8478,"introduce</w>":8479,"pursu":8480,"leon</w>":8481,"circling</w>":8482,"ore":8483,"ells</w>":8484,"ased</w>":8485,"rabbit</w>":8486,"portion</w>":8487,"sim":8488,"witnessed</w>":8489,"represen":8490,"bling</w>":8491,"ruby</w>":8492,"deer</w>":8493,"nudged</w>":8494,"dson</w>":8495,"lick</w>":8496,"commo":8497,"sweep</w>":8498,"corrected</w>":8499,"tives</w>":8500,"sco</w>":8501,"enna</w>":8502,"vague</w>":8503,"infin":8504,"chewed</w>":8505,"vom":8506,"bending</w>":8507,"mitri</w>":8508,"larry</w>":8509,"warehouse</w>":8510,"prime</w>":8511,"lashes</w>":8512,"michelle</w>":8513,"expert</w>":8514,"gleaming</w>":8515,"gna":8516,"forearm</w>":8517,"salu":8518,"maker</w>":8519,"eth</w>":8520,"ana":8521,"inju":8522,"troubled</w>":8523,"lene</w>":8524,"xim":8525,"cue</w>":8526,"pavement</w>":8527,"grins</w>":8528,"never":8529,"damaged</w>":8530,"generous</w>":8531,"impatient</w>":8532,"mount</w>":8533,"rational</w>":8534,"conclusion</w>":8535,"soil</w>":8536,"con</w>":8537,"callie</w>":8538,"taxi</w>":8539,"clit</w>":8540,"storage</w>":8541,"hovered</w>":8542,"stride</w>":8543,"wisdom</w>":8544,"warmed</w>":8545,"financial</w>":8546,"mos</w>":8547,"require</w>":8548,"aboard</w>":8549,"wayne</w>":8550,"draw":8551,"adin</w>":8552,"smoothly</w>":8553,"tumbled</w>":8554,"fast":8555,"layer</w>":8556,"av":8557,"dna</w>":8558,"pushes</w>":8559,"mock</w>":8560,"charges</w>":8561,"handled</w>":8562,"cover":8563,"wen":8564,"oppon":8565,"lewis</w>":8566,"scanning</w>":8567,"shudder</w>":8568,"dear":8569,"ssen":8570,"develop":8571,"curb</w>":8572,"fox</w>":8573,"foul</w>":8574,"robot</w>":8575,"derson</w>":8576,"zeke</w>":8577,"holden</w>":8578,"linda</w>":8579,"freezing</w>":8580,"socks</w>":8581,"10":8582,"pillows</w>":8583,"set":8584,"initial</w>":8585,"judging</w>":8586,"inely</w>":8587,"piled</w>":8588,"commented</w>":8589,"farm":8590,"prisoners</w>":8591,"femin":8592,"ria</w>":8593,"paint":8594,"exercise</w>":8595,"shotgun</w>":8596,"buck</w>":8597,"impatiently</w>":8598,"reporter</w>":8599,"congrat":8600,"ories</w>":8601,"decorated</w>":8602,"drun":8603,"backing</w>":8604,"eva":8605,"congratul":8606,"quest</w>":8607,"nels</w>":8608,"lement</w>":8609,"tire":8610,"citizens</w>":8611,"agit":8612,"tools</w>":8613,"sian</w>":8614,"dealt</w>":8615,"addition</w>":8616,"sorrow</w>":8617,"refri":8618,"nut</w>":8619,"icial</w>":8620,"arrest</w>":8621,"patiently</w>":8622,"monit":8623,"lining</w>":8624,"plunged</w>":8625,"whiskey</w>":8626,"explode</w>":8627,"population</w>":8628,"fiona</w>":8629,"declan</w>":8630,"chant</w>":8631,"sighs</w>":8632,"hastily</w>":8633,"disaster</w>":8634,"yo</w>":8635,"decades</w>":8636,"perry</w>":8637,"newly</w>":8638,"north":8639,"ut</w>":8640,"della</w>":8641,"mistakes</w>":8642,"hide":8643,"og":8644,"madness</w>":8645,"description</w>":8646,"facility</w>":8647,"cian</w>":8648,"chip</w>":8649,"dispo":8650,"dee":8651,"awak":8652,"touches</w>":8653,"slice</w>":8654,"log</w>":8655,"gal</w>":8656,"eler":8657,"refriger":8658,"bug</w>":8659,"beloved</w>":8660,"acqu":8661,"hardened</w>":8662,"retreat</w>":8663,"itute</w>":8664,"janet</w>":8665,"consul":8666,"vegas</w>":8667,"slam</w>":8668,"imagining</w>":8669,"disagre":8670,"passion":8671,"supper</w>":8672,"acceler":8673,"regard</w>":8674,"knives</w>":8675,"meanwhile</w>":8676,"bands</w>":8677,"stall</w>":8678,"bouncing</w>":8679,"concentration</w>":8680,"iced</w>":8681,"enthusiasm</w>":8682,"bucks</w>":8683,"sliced</w>":8684,"ripping</w>":8685,"leaders</w>":8686,"praying</w>":8687,"misery</w>":8688,"twir":8689,"saddle</w>":8690,"mation</w>":8691,"past":8692,"distract</w>":8693,"breath":8694,"studio</w>":8695,"costu":8696,"speaker</w>":8697,"jeff":8698,"contain</w>":8699,"bang</w>":8700,"profile</w>":8701,"west":8702,"tick</w>":8703,"shuffled</w>":8704,"fare</w>":8705,"omi</w>":8706,"chamb":8707,"gloo":8708,"positioned</w>":8709,"assignment</w>":8710,"intimid":8711,"depu":8712,"ige</w>":8713,"macy</w>":8714,"smoothed</w>":8715,"langdon</w>":8716,"buzz</w>":8717,"saw":8718,"dors</w>":8719,"thoughtfully</w>":8720,"earth":8721,"replies</w>":8722,"admi":8723,"intentions</w>":8724,"france</w>":8725,"roots</w>":8726,"assigned</w>":8727,"awareness</w>":8728,"crease</w>":8729,"zo</w>":8730,"beds</w>":8731,"drama</w>":8732,"extreme</w>":8733,"roses</w>":8734,"pig</w>":8735,"museum</w>":8736,"register</w>":8737,"attorney</w>":8738,"christop":8739,"uncertain</w>":8740,"piss</w>":8741,"kit</w>":8742,"tip":8743,"awkwardly</w>":8744,"aly</w>":8745,"burden</w>":8746,"room":8747,"refusing</w>":8748,"clinging</w>":8749,"celest":8750,"zombies</w>":8751,"toy</w>":8752,"taneously</w>":8753,"cate</w>":8754,"awhile</w>":8755,"lessons</w>":8756,"thoughtful</w>":8757,"fs</w>":8758,"omin":8759,"cord</w>":8760,"......</w>":8761,"lasted</w>":8762,"coin</w>":8763,"ssively</w>":8764,"cherry</w>":8765,"teria</w>":8766,"hal</w>":8767,"garbage</w>":8768,"becky</w>":8769,"rattled</w>":8770,"sunglasses</w>":8771,"lis</w>":8772,"trousers</w>":8773,"deciding</w>":8774,"miller</w>":8775,"rom":8776,"levels</w>":8777,"tues":8778,"jealousy</w>":8779,"butter</w>":8780,"strolled</w>":8781,"cuffs</w>":8782,"assassin</w>":8783,"awoke</w>":8784,"madame</w>":8785,"confin":8786,"cakes</w>":8787,"indul":8788,"iest</w>":8789,"cargo</w>":8790,"sca</w>":8791,"olas</w>":8792,"xavier</w>":8793,"tooth":8794,"casey</w>":8795,"tests</w>":8796,"whip</w>":8797,"clerk</w>":8798,"sations</w>":8799,"inevitable</w>":8800,"vik":8801,"heck</w>":8802,"lion":8803,"governor</w>":8804,"tine</w>":8805,"spilling</w>":8806,"darius</w>":8807,"lifts</w>":8808,"harper</w>":8809,"c.</w>":8810,"surrender</w>":8811,"winding</w>":8812,"visitors</w>":8813,"injuries</w>":8814,"griffin</w>":8815,"resistance</w>":8816,"joan</w>":8817,"sofia</w>":8818,"colli":8819,"whore</w>":8820,"swirled</w>":8821,"recru":8822,"word":8823,"stove</w>":8824,"perched</w>":8825,"brains</w>":8826,"attempts</w>":8827,"all":8828,"passes</w>":8829,"herd</w>":8830,"tland</w>":8831,"bewil":8832,"analy":8833,"reed</w>":8834,"melanie</w>":8835,"marco</w>":8836,"jen</w>":8837,"ambul":8838,"fantastic</w>":8839,"rigid</w>":8840,"che</w>":8841,"tiff":8842,"inclined</w>":8843,"loyal</w>":8844,"math</w>":8845,"shivering</w>":8846,"discussing</w>":8847,"var</w>":8848,"canv":8849,"seventy</w>":8850,"apri":8851,"paperwork</w>":8852,"slope</w>":8853,"reminder</w>":8854,"maxi":8855,"knights</w>":8856,"diana</w>":8857,"dismissed</w>":8858,"trey</w>":8859,"shades</w>":8860,"fashioned</w>":8861,"lara</w>":8862,"sincer":8863,"appreciated</w>":8864,"bold</w>":8865,"theater</w>":8866,"millions</w>":8867,"ots</w>":8868,"gravity</w>":8869,"cans</w>":8870,"allison</w>":8871,"rober":8872,"lizzie</w>":8873,"maddie</w>":8874,"wedne":8875,"northern</w>":8876,"kan":8877,"spanish</w>":8878,"urgent</w>":8879,"hatch</w>":8880,"duck</w>":8881,"devo":8882,"gery</w>":8883,"marshall</w>":8884,"creepy</w>":8885,"connect</w>":8886,"overcome</w>":8887,"machines</w>":8888,"ille</w>":8889,"mono":8890,"crumpled</w>":8891,"condu":8892,"rats</w>":8893,"kinda</w>":8894,"superior</w>":8895,"teddy</w>":8896,"ambulance</w>":8897,"china</w>":8898,"spike</w>":8899,"senator</w>":8900,"foyer</w>":8901,"sworn</w>":8902,"rh":8903,"altogether</w>":8904,"zzling</w>":8905,"logic</w>":8906,"ware</w>":8907,"portal</w>":8908,"conspir":8909,"clamped</w>":8910,"thorne</w>":8911,"performance</w>":8912,"warren</w>":8913,"exhaustion</w>":8914,"factory</w>":8915,"edged</w>":8916,"artist</w>":8917,"thud</w>":8918,"bark</w>":8919,"mortals</w>":8920,"journal</w>":8921,"frightening</w>":8922,"prou":8923,"ettes</w>":8924,"aura</w>":8925,"dex</w>":8926,"annoyance</w>":8927,"europe</w>":8928,"ember</w>":8929,"dangling</w>":8930,"heaved</w>":8931,"communication</w>":8932,"autu":8933,"promises</w>":8934,"perfu":8935,"pony":8936,"berg</w>":8937,"sparkling</w>":8938,"sparks</w>":8939,"cancer</w>":8940,"asp":8941,"pleading</w>":8942,"micah</w>":8943,"shi</w>":8944,"moni":8945,"econ":8946,"additional</w>":8947,"haze</w>":8948,"inqui":8949,"trailing</w>":8950,"tti":8951,"complained</w>":8952,"strings</w>":8953,"insurance</w>":8954,"blows</w>":8955,"menu</w>":8956,"jewelry</w>":8957,"messed</w>":8958,"clary</w>":8959,"online</w>":8960,"kneeling</w>":8961,"eyeing</w>":8962,"bubble</w>":8963,"dramatic</w>":8964,"pru":8965,"raged</w>":8966,"rack</w>":8967,"session</w>":8968,"insides</w>":8969,"smacked</w>":8970,"exag":8971,"eagerly</w>":8972,"derness</w>":8973,"albert</w>":8974,"oxy":8975,"ggle</w>":8976,"pinched</w>":8977,"novel</w>":8978,"tus</w>":8979,"roof":8980,"comments</w>":8981,"inse":8982,"reci":8983,"mately</w>":8984,"parent</w>":8985,"mischi":8986,"franc":8987,"lounge</w>":8988,"apol":8989,"safer</w>":8990,"neighbor</w>":8991,"admini":8992,"depar":8993,"bruises</w>":8994,"sighing</w>":8995,"cassandra</w>":8996,"alu":8997,"spark</w>":8998,"rubber</w>":8999,"pills</w>":9000,"carol</w>":9001,"scowl</w>":9002,"ebook</w>":9003,"shops</w>":9004,"bald</w>":9005,"misty</w>":9006,"distinct</w>":9007,"ida</w>":9008,"accused</w>":9009,"huddled</w>":9010,"doug</w>":9011,"sweaty</w>":9012,"preston</w>":9013,"loyalty</w>":9014,"esa</w>":9015,"resen":9016,"ament</w>":9017,"retreated</w>":9018,"mixture</w>":9019,"deaths</w>":9020,"cookies</w>":9021,"echoing</w>":9022,"carson</w>":9023,"ray":9024,"kendra</w>":9025,"tiffany</w>":9026,"dashed</w>":9027,"func":9028,"greet</w>":9029,"thankful</w>":9030,"whoa</w>":9031,"cavern</w>":9032,"yal</w>":9033,"requi":9034,"mechan":9035,"perform</w>":9036,"tales</w>":9037,"'cause</w>":9038,"terrifying</w>":9039,"limits</w>":9040,"cha</w>":9041,"tend</w>":9042,"arriving</w>":9043,"clai":9044,"arrogant</w>":9045,"bartender</w>":9046,"torch</w>":9047,"beats</w>":9048,"lanter":9049,"moist</w>":9050,"eot":9051,"shorter</w>":9052,"education</w>":9053,"bon</w>":9054,"interf":9055,"fever</w>":9056,"delim</w>":9057,"religious</w>":9058,"eotdelim</w>":9059,"types</w>":9060,"tuesday</w>":9061,"unbeliev":9062,"mire</w>":9063,"banks</w>":9064,"morti":9065,"flood</w>":9066,"symbol</w>":9067,"shapes</w>":9068,"chem":9069,"shrugs</w>":9070,"curves</w>":9071,"reserved</w>":9072,"injury</w>":9073,"aci":9074,"systems</w>":9075,"bolted</w>":9076,"tack":9077,"gaining</w>":9078,"chips</w>":9079,"virgin</w>":9080,"discom":9081,"spoon</w>":9082,"dial</w>":9083,"embarrassing</w>":9084,"reacted</w>":9085,"lissa</w>":9086,"contemp":9087,"apprehen":9088,"fically</w>":9089,"autumn</w>":9090,"flicker</w>":9091,"jade</w>":9092,"resolve</w>":9093,"vie</w>":9094,"attraction</w>":9095,"tended</w>":9096,"senti":9097,"scarlet</w>":9098,"faintly</w>":9099,"sures</w>":9100,"evol":9101,"notion</w>":9102,"uri":9103,"mack":9104,"cares</w>":9105,"scan</w>":9106,"disappro":9107,"demo":9108,"immen":9109,"luc</w>":9110,"spill</w>":9111,"vicious</w>":9112,"folds</w>":9113,"innoc":9114,"sobbing</w>":9115,"straw</w>":9116,"removing</w>":9117,"yson</w>":9118,"companions</w>":9119,"beasts</w>":9120,"dana</w>":9121,"hh</w>":9122,"ancest":9123,"sale</w>":9124,"partially</w>":9125,"combined</w>":9126,"feder":9127,"eastern</w>":9128,"photograph</w>":9129,"internal</w>":9130,"registered</w>":9131,"teenager</w>":9132,"blackness</w>":9133,"tease</w>":9134,"tracy</w>":9135,"ician</w>":9136,"tag</w>":9137,"ela</w>":9138,"wheel":9139,"thin'</w>":9140,"district</w>":9141,"claw</w>":9142,"watches</w>":9143,"unlikely</w>":9144,"stuart</w>":9145,"acity</w>":9146,"seep":9147,"loading</w>":9148,"papa</w>":9149,"irritation</w>":9150,"stephan":9151,"attacks</w>":9152,"unpleasant</w>":9153,"arrange</w>":9154,"courte":9155,"wednesday</w>":9156,"mall</w>":9157,"veyed</w>":9158,"ponytail</w>":9159,"mack</w>":9160,"function</w>":9161,"disci":9162,"multiple</w>":9163,"ites</w>":9164,"jab":9165,"choking</w>":9166,"wels</w>":9167,"blazing</w>":9168,"proceeded</w>":9169,"releasing</w>":9170,"activities</w>":9171,"strap</w>":9172,"cowboy</w>":9173,"exclu":9174,"applau":9175,"lea</w>":9176,"dome</w>":9177,"tali":9178,"secured</w>":9179,"pencil</w>":9180,"meetings</w>":9181,"portra":9182,"coincidence</w>":9183,"officially</w>":9184,"visions</w>":9185,"ancing</w>":9186,"temples</w>":9187,"refrigerator</w>":9188,"alist</w>":9189,"longed</w>":9190,"outs</w>":9191,"yl</w>":9192,"tortured</w>":9193,"rapid</w>":9194,"produce</w>":9195,"fiercely</w>":9196,"ez":9197,"sunny</w>":9198,"skim":9199,"cody</w>":9200,"dread":9201,"swell</w>":9202,"sman</w>":9203,"positions</w>":9204,"doubts</w>":9205,"shaken</w>":9206,"patri":9207,"exagger":9208,"players</w>":9209,"magnificent</w>":9210,"crushing</w>":9211,"insult</w>":9212,"psychic</w>":9213,"reluctant</w>":9214,"thursday</w>":9215,"stung</w>":9216,"sunset</w>":9217,"romance</w>":9218,"parano":9219,"viewed</w>":9220,"sweating</w>":9221,"laundry</w>":9222,"hyster":9223,"linked</w>":9224,"chess</w>":9225,"stray</w>":9226,"jonas</w>":9227,"gil</w>":9228,"dia":9229,"corn":9230,"pecu":9231,"focusing</w>":9232,"freeze</w>":9233,"streaming</w>":9234,"mouthed</w>":9235,"downward</w>":9236,"delighted</w>":9237,"crisp</w>":9238,"dary</w>":9239,"control":9240,"dash</w>":9241,"slaves</w>":9242,"ecst":9243,"variety</w>":9244,"shrieked</w>":9245,"april</w>":9246,"provo":9247,"hum</w>":9248,"strapped</w>":9249,"tracking</w>":9250,"labor":9251,"claims</w>":9252,"tent":9253,"spects</w>":9254,"illegal</w>":9255,"dedic":9256,"indian</w>":9257,"fiery</w>":9258,"tics</w>":9259,"inviting</w>":9260,"strain</w>":9261,"stin":9262,"specul":9263,"thread</w>":9264,"ssel</w>":9265,"meaning":9266,"brooke</w>":9267,"cracking</w>":9268,"way":9269,"forgetting</w>":9270,"eighty</w>":9271,"thra":9272,"bidden</w>":9273,"whitney</w>":9274,"erly</w>":9275,"accustom":9276,"whistle</w>":9277,"rols</w>":9278,"att</w>":9279,"bonnie</w>":9280,"philip</w>":9281,"acker</w>":9282,"tide</w>":9283,"dwarf</w>":9284,"slung</w>":9285,"score</w>":9286,"santa</w>":9287,"vo</w>":9288,"objects</w>":9289,"else":9290,"accustomed</w>":9291,"evidently</w>":9292,"ceme":9293,"tucker</w>":9294,"temer":9295,"helpful</w>":9296,"mech":9297,"arrows</w>":9298,"sly</w>":9299,"oblivious</w>":9300,"granny</w>":9301,"demands</w>":9302,"flickering</w>":9303,"fee":9304,"france":9305,"offended</w>":9306,"swo":9307,"pples</w>":9308,"grav":9309,"oldest</w>":9310,"agency</w>":9311,"adults</w>":9312,"largest</w>":9313,"unts</w>":9314,"duties</w>":9315,"clad</w>":9316,"transp":9317,"swayed</w>":9318,"greek</w>":9319,"explore</w>":9320,"transport</w>":9321,"skipped</w>":9322,"passa":9323,"axe</w>":9324,"altar</w>":9325,"pond</w>":9326,"mont</w>":9327,"joel</w>":9328,"august</w>":9329,"bot</w>":9330,"surged</w>":9331,"kur":9332,"--------":9333,"spective</w>":9334,"aler":9335,"scenari":9336,"hart</w>":9337,"charity</w>":9338,"crooked</w>":9339,"bruised</w>":9340,"picks</w>":9341,"genuinely</w>":9342,"class":9343,"disturbing</w>":9344,"mother":9345,"fuck":9346,"dream":9347,"vince</w>":9348,"ui":9349,"stunning</w>":9350,"basis</w>":9351,"donna</w>":9352,"difficulty</w>":9353,"caution</w>":9354,"cara</w>":9355,"cies</w>":9356,"smash":9357,"thump</w>":9358,"madison</w>":9359,"incredul":9360,"saun":9361,"proudly</w>":9362,"brutal</w>":9363,"festi":9364,"dous</w>":9365,"shifter</w>":9366,"quir":9367,"fighter</w>":9368,"snick":9369,"slides</w>":9370,"delu":9371,"cursing</w>":9372,"acefully</w>":9373,"tires</w>":9374,"fiction</w>":9375,"elderly</w>":9376,"stein</w>":9377,"degrees</w>":9378,"frost</w>":9379,"offices</w>":9380,"item</w>":9381,"bris</w>":9382,"policem":9383,"hunched</w>":9384,"justi":9385,"colm</w>":9386,"pardon</w>":9387,"virus</w>":9388,"denied</w>":9389,"motionless</w>":9390,"pierced</w>":9391,"tality</w>":9392,"fin</w>":9393,"tightening</w>":9394,"motel</w>":9395,"elded</w>":9396,"cass</w>":9397,"avenue</w>":9398,"tangle</w>":9399,"ropes</w>":9400,"afterwards</w>":9401,"caressed</w>":9402,"tones</w>":9403,"tunnels</w>":9404,"filthy</w>":9405,"hay":9406,"examine</w>":9407,"elaborate</w>":9408,"writer</w>":9409,"rounds</w>":9410,"nap</w>":9411,"accepting</w>":9412,"acknowledge</w>":9413,"root</w>":9414,"anced</w>":9415,"capital</w>":9416,"pregnancy</w>":9417,"naomi</w>":9418,"auto":9419,"messy</w>":9420,"nik</w>":9421,"solit":9422,"melt</w>":9423,"guts</w>":9424,"employees</w>":9425,"semi</w>":9426,"identify</w>":9427,"talks</w>":9428,"bumped</w>":9429,"jagged</w>":9430,"challeng":9431,"fresh":9432,"foster</w>":9433,"daughters</w>":9434,"repeatedly</w>":9435,"mur</w>":9436,"concerns</w>":9437,"cheer</w>":9438,"asshole</w>":9439,"stephanie</w>":9440,"lus</w>":9441,"eil</w>":9442,"tuary</w>":9443,"assistance</w>":9444,"constru":9445,"starving</w>":9446,"returns</w>":9447,"pausing</w>":9448,"bethany</w>":9449,"carrie</w>":9450,"fat":9451,"phillip</w>":9452,"bey</w>":9453,"malcolm</w>":9454,"vice</w>":9455,"importance</w>":9456,"pairs</w>":9457,"pre</w>":9458,"stain</w>":9459,"unaware</w>":9460,"spur":9461,"prize</w>":9462,"winds</w>":9463,"unhappy</w>":9464,"highest</w>":9465,"canvas</w>":9466,"stir</w>":9467,"steep</w>":9468,"numerous</w>":9469,"metal":9470,"temeraire</w>":9471,"tex</w>":9472,"jules</w>":9473,"elsewhere</w>":9474,"dians</w>":9475,"mommy</w>":9476,"strongly</w>":9477,"jection</w>":9478,"advance</w>":9479,"dorian</w>":9480,"dimitri</w>":9481,"zach":9482,"tz</w>":9483,"dialed</w>":9484,"~~":9485,"theless</w>":9486,"razor</w>":9487,"christopher</w>":9488,"technically</w>":9489,"oblig":9490,"battle":9491,"retrieved</w>":9492,"attacking</w>":9493,"absently</w>":9494,"hector</w>":9495,"merry</w>":9496,"scooped</w>":9497,"phrase</w>":9498,"nevertheless</w>":9499,"defeated</w>":9500,"countless</w>":9501,"replace</w>":9502,"negative</w>":9503,"mption</w>":9504,"troy</w>":9505,"bracel":9506,"barre":9507,"ap":9508,"16</w>":9509,"dono":9510,"dryly</w>":9511,"patrol</w>":9512,"p.m.</w>":9513,"sour</w>":9514,"chewing</w>":9515,"lurched</w>":9516,"confid":9517,"tural</w>":9518,"suited</w>":9519,"quet</w>":9520,"absorbed</w>":9521,"bruce</w>":9522,"flipping</w>":9523,"bishop</w>":9524,"maya</w>":9525,"leon":9526,"retrieve</w>":9527,"fling</w>":9528,"possibilities</w>":9529,"bites</w>":9530,"zipped</w>":9531,"alike</w>":9532,"addressed</w>":9533,"woken</w>":9534,"resources</w>":9535,"fond</w>":9536,"delay</w>":9537,"freely</w>":9538,"backyard</w>":9539,"salad</w>":9540,"magnus</w>":9541,"obsc":9542,"leak</w>":9543,"gyp":9544,"aliens</w>":9545,"paths</w>":9546,"sers</w>":9547,"donald</w>":9548,"cyn":9549,"willingly</w>":9550,"xy</w>":9551,"ball":9552,"patients</w>":9553,"austin</w>":9554,"napkin</w>":9555,"bible</w>":9556,"murphy</w>":9557,"eless":9558,"void</w>":9559,"jag":9560,"sacred</w>":9561,"furiously</w>":9562,"dead":9563,"pleasan":9564,"paintings</w>":9565,"sasha</w>":9566,"lodge</w>":9567,"vic</w>":9568,"vessel</w>":9569,"ninety</w>":9570,"chel":9571,"keen</w>":9572,"savage</w>":9573,"furrowed</w>":9574,"cemetery</w>":9575,"smelling</w>":9576,"preven":9577,"giggling</w>":9578,"ellen</w>":9579,"sleepy</w>":9580,"disco":9581,"claiming</w>":9582,"defensive</w>":9583,"stores</w>":9584,"blasted</w>":9585,"south":9586,"tested</w>":9587,"mbly</w>":9588,"script</w>":9589,"arian</w>":9590,"rogue</w>":9591,"practical</w>":9592,"bizar":9593,"prop":9594,"eline</w>":9595,"timing</w>":9596,"ritual</w>":9597,"ppling</w>":9598,"buzzing</w>":9599,"ize</w>":9600,"flashes</w>":9601,"effective</w>":9602,"delivery</w>":9603,"linger</w>":9604,"leigh</w>":9605,"kings</w>":9606,"culture</w>":9607,"cracks</w>":9608,"attended</w>":9609,"sobs</w>":9610,"cautious</w>":9611,"summoned</w>":9612,"prospect</w>":9613,"restless</w>":9614,"index</w>":9615,"fascinated</w>":9616,"column</w>":9617,"reassuring</w>":9618,"upside</w>":9619,"illusion</w>":9620,"allie</w>":9621,"tons</w>":9622,"sticky</w>":9623,"encountered</w>":9624,"werewolves</w>":9625,"interrog":9626,"cable</w>":9627,"beamed</w>":9628,"applied</w>":9629,"partly</w>":9630,"battered</w>":9631,"frankly</w>":9632,"feathers</w>":9633,"wander</w>":9634,"sensing</w>":9635,"metho":9636,"oxygen</w>":9637,"growth</w>":9638,"studies</w>":9639,"sily</w>":9640,"drey</w>":9641,"depre":9642,"barri":9643,"promising</w>":9644,"blinding</w>":9645,"genius</w>":9646,"feminine</w>":9647,"contrac":9648,"cooked</w>":9649,"referring</w>":9650,"eur</w>":9651,"lovers</w>":9652,"drum</w>":9653,"rann</w>":9654,"bedside</w>":9655,"raises</w>":9656,"affect</w>":9657,"sprawled</w>":9658,"pauses</w>":9659,"punc":9660,"icia</w>":9661,"felix</w>":9662,"smug</w>":9663,"coal</w>":9664,"sensual</w>":9665,"earn</w>":9666,"diner</w>":9667,"characters</w>":9668,"stumbling</w>":9669,"octo":9670,"silky</w>":9671,"persua":9672,"expressions</w>":9673,"swallowing</w>":9674,"smen</w>":9675,"wealthy</w>":9676,"myr":9677,"nephe":9678,"liking</w>":9679,"tegr":9680,"hit":9681,"harm":9682,"stab</w>":9683,"j.</w>":9684,"sacri":9685,"blos":9686,"fleet</w>":9687,"bubb":9688,"bacon</w>":9689,"glorious</w>":9690,"fans</w>":9691,"purchased</w>":9692,"flick</w>":9693,"identical</w>":9694,"correctly</w>":9695,"teachers</w>":9696,"secretly</w>":9697,"rumbled</w>":9698,"diag":9699,"convincing</w>":9700,"passengers</w>":9701,"alexandra</w>":9702,"dise</w>":9703,"welcom":9704,"swam</w>":9705,"calmed</w>":9706,"tribe</w>":9707,"joint</w>":9708,"rik</w>":9709,"campa":9710,"eived</w>":9711,"leen</w>":9712,"jackie</w>":9713,"gee":9714,"nard</w>":9715,"specifically</w>":9716,"hiss</w>":9717,"fountain</w>":9718,"vote</w>":9719,"necessarily</w>":9720,"meantime</w>":9721,"engines</w>":9722,"sheep</w>":9723,"disin":9724,"discovery</w>":9725,"moo":9726,"audrey</w>":9727,"requested</w>":9728,"grunt</w>":9729,"exception</w>":9730,"absur":9731,"kindly</w>":9732,"stacked</w>":9733,"consciously</w>":9734,"gulped</w>":9735,"sail</w>":9736,"sucks</w>":9737,"originally</w>":9738,"eliza</w>":9739,"meth":9740,"debris</w>":9741,"admired</w>":9742,"interpre":9743,"acknowledged</w>":9744,"tia</w>":9745,"abandon</w>":9746,"lincol":9747,"ledge</w>":9748,"catches</w>":9749,"gular</w>":9750,"cheek":9751,"recep":9752,"blessed</w>":9753,"humming</w>":9754,"gible</w>":9755,"17</w>":9756,"stressed</w>":9757,"retired</w>":9758,"horse":9759,"gay</w>":9760,"console</w>":9761,"creeping</w>":9762,"anni":9763,"angui":9764,"roaring</w>":9765,"puppy</w>":9766,"amazement</w>":9767,"piano</w>":9768,"heavens</w>":9769,"phoen":9770,"heap</w>":9771,"choosing</w>":9772,"dess":9773,"goods</w>":9774,"depends</w>":9775,"lena</w>":9776,"scope</w>":9777,"aden</w>":9778,"unfamiliar</w>":9779,"sam":9780,"cow</w>":9781,"mistaken</w>":9782,"msy</w>":9783,"trucks</w>":9784,"burnt</w>":9785,"pursed</w>":9786,"fumbled</w>":9787,"francesca</w>":9788,"dwel":9789,"celebrate</w>":9790,"mexico</w>":9791,"ligh":9792,"welcomed</w>":9793,"disgusting</w>":9794,"raging</w>":9795,"nineteen</w>":9796,"bumps</w>":9797,"venge":9798,"gratitude</w>":9799,"rung</w>":9800,"reminds</w>":9801,"brass</w>":9802,"ak":9803,"goose</w>":9804,"devast":9805,"adjust</w>":9806,"relationships</w>":9807,"elo":9808,"concluded</w>":9809,"relatively</w>":9810,"quin":9811,"resisted</w>":9812,"hut</w>":9813,"ula</w>":9814,"outstretched</w>":9815,"meals</w>":9816,"happier</w>":9817,"theirs</w>":9818,"moist":9819,"infected</w>":9820,"drowned</w>":9821,"stirring</w>":9822,"collapse</w>":9823,"stella</w>":9824,"claude</w>":9825,"concept</w>":9826,"accommo":9827,"rock":9828,"disgusted</w>":9829,"clipped</w>":9830,"callum</w>":9831,"motions</w>":9832,"fae</w>":9833,"asher</w>":9834,"organization</w>":9835,"caress</w>":9836,"accidentally</w>":9837,"resumed</w>":9838,"backseat</w>":9839,"sorted</w>":9840,"brighter</w>":9841,"betrayal</w>":9842,"mascul":9843,"grimly</w>":9844,"pictured</w>":9845,"cassidy</w>":9846,"opti":9847,"recogn":9848,"closes</w>":9849,"stormed</w>":9850,"luce</w>":9851,"d.</w>":9852,"buzzed</w>":9853,"sawyer</w>":9854,"flag</w>":9855,"apologe":9856,"fluid</w>":9857,"exqui":9858,"trau":9859,"sanctuary</w>":9860,"rim</w>":9861,"plays</w>":9862,"compliment</w>":9863,"frag":9864,"computers</w>":9865,"wasting</w>":9866,"logist</w>":9867,"threats</w>":9868,"force":9869,"recognition</w>":9870,"tremble</w>":9871,"sunk</w>":9872,"industri":9873,"commerci":9874,"thie":9875,"displayed</w>":9876,"undead</w>":9877,"creation</w>":9878,"blurred</w>":9879,"one":9880,"documents</w>":9881,"dazed</w>":9882,"unfortunate</w>":9883,"glittering</w>":9884,"dalton</w>":9885,"shutting</w>":9886,"severe</w>":9887,"lincoln</w>":9888,"gallery</w>":9889,"confirm</w>":9890,"murderer</w>":9891,"discre":9892,"aircraft</w>":9893,"elly</w>":9894,"religion</w>":9895,"vors</w>":9896,"spells</w>":9897,"donovan</w>":9898,"contribu":9899,"robes</w>":9900,"u.s.</w>":9901,"burg</w>":9902,"valerie</w>":9903,"lilly</w>":9904,"retor":9905,"arrangements</w>":9906,"obey</w>":9907,"gaping</w>":9908,"fitted</w>":9909,"beams</w>":9910,"lee":9911,"stock":9912,"wrath</w>":9913,"hopeful</w>":9914,"resort</w>":9915,"viewing</w>":9916,"pumping</w>":9917,"complain</w>":9918,"suspiciously</w>":9919,"conditions</w>":9920,"jokes</w>":9921,"abra":9922,"lecture</w>":9923,"peeled</w>":9924,"convenient</w>":9925,"journ":9926,"trusting</w>":9927,"rad</w>":9928,"loop</w>":9929,"elliot</w>":9930,"zar</w>":9931,"tech</w>":9932,"drain</w>":9933,"scout</w>":9934,"illuminated</w>":9935,"arrangement</w>":9936,"ax</w>":9937,"insist":9938,"express</w>":9939,"prior</w>":9940,"iring</w>":9941,"eerie</w>":9942,"teenage</w>":9943,"kellan</w>":9944,"determine</w>":9945,"weakly</w>":9946,"competition</w>":9947,"virgin":9948,"luxury</w>":9949,"gardens</w>":9950,"tissue</w>":9951,"chemi":9952,"ares</w>":9953,"aur":9954,"joked</w>":9955,"guarantee</w>":9956,"rhys</w>":9957,"legend</w>":9958,"succeeded</w>":9959,"bizarre</w>":9960,"environment</w>":9961,"skip</w>":9962,"hop</w>":9963,"follows</w>":9964,"repair</w>":9965,"antonio</w>":9966,"noneth":9967,"nonetheless</w>":9968,"keith</w>":9969,"stilled</w>":9970,"depth</w>":9971,"coordin":9972,"sened</w>":9973,"academy</w>":9974,"stics</w>":9975,"scarf</w>":9976,"inser":9977,"gaw":9978,"princip":9979,"entertain":9980,"thrill</w>":9981,"18</w>":9982,"viously</w>":9983,"ceased</w>":9984,"surgery</w>":9985,"prompted</w>":9986,"lawyers</w>":9987,"scraped</w>":9988,"photographs</w>":9989,"include</w>":9990,"piper</w>":9991,"network</w>":9992,"leagues</w>":9993,"comprehen":9994,"tricks</w>":9995,"strand</w>":9996,"stomped</w>":9997,"counsel":9998,"nancy</w>":9999,"mature</w>":10000,"fetch</w>":10001,"visitor</w>":10002,"relaxing</w>":10003,"mild</w>":10004,"fulness</w>":10005,"confessed</w>":10006,"cora</w>":10007,"shep":10008,"darcy</w>":10009,"vial</w>":10010,"explains</w>":10011,"encouraged</w>":10012,"drowning</w>":10013,"chuckles</w>":10014,"rays</w>":10015,"dive</w>":10016,"appearing</w>":10017,"scheduled</w>":10018,"elf</w>":10019,"wes</w>":10020,"levi</w>":10021,"halls</w>":10022,"rang":10023,"shea":10024,"mini</w>":10025,"ultimate</w>":10026,"cringed</w>":10027,"elimin":10028,"mitch":10029,"mblance</w>":10030,"prophec":10031,"monk</w>":10032,"escorted</w>":10033,"patio</w>":10034,"eving</w>":10035,"sooth":10036,"oly":10037,"ane":10038,"perfection</w>":10039,"bastar":10040,"politics</w>":10041,"fingernails</w>":10042,"salv":10043,"ddles</w>":10044,"chann":10045,"tails</w>":10046,"halted</w>":10047,"essence</w>":10048,"daring</w>":10049,"marine</w>":10050,"development</w>":10051,"isabel</w>":10052,"believes</w>":10053,"puzzle</w>":10054,"sweetie</w>":10055,"perfume</w>":10056,"generation</w>":10057,"stays</w>":10058,"crai":10059,"weighed</w>":10060,"strokes</w>":10061,"limit</w>":10062,"indicating</w>":10063,"indign":10064,"let":10065,"murmur</w>":10066,"bells</w>":10067,"dennis</w>":10068,"discomfort</w>":10069,"minded</w>":10070,"stur":10071,"examining</w>":10072,"circular</w>":10073,"sarcasm</w>":10074,"launch</w>":10075,"homework</w>":10076,"plain":10077,"pu</w>":10078,"locate</w>":10079,"elem":10080,"innocence</w>":10081,"swaying</w>":10082,"chest":10083,"walter</w>":10084,"tripped</w>":10085,"coins</w>":10086,"hoarse</w>":10087,"straining</w>":10088,"remarkable</w>":10089,"mored</w>":10090,"isabelle</w>":10091,"stench</w>":10092,"escaping</w>":10093,"lett</w>":10094,"failing</w>":10095,"seduc":10096,"accurate</w>":10097,"husky</w>":10098,"dense</w>":10099,"arousal</w>":10100,"transl":10101,"brady</w>":10102,"tracked</w>":10103,"cough</w>":10104,"debt</w>":10105,"muttering</w>":10106,"seed</w>":10107,"terry</w>":10108,"dism":10109,"patterns</w>":10110,"jan</w>":10111,"respected</w>":10112,"opponent</w>":10113,"desired</w>":10114,"harbor</w>":10115,"gin</w>":10116,"bee</w>":10117,"marina</w>":10118,"mma</w>":10119,"poking</w>":10120,"prim":10121,"sque</w>":10122,"nicely</w>":10123,"lling</w>":10124,"suf":10125,"phoenix</w>":10126,"native</w>":10127,"july</w>":10128,"hazel</w>":10129,"ghtness</w>":10130,"distress</w>":10131,"xter</w>":10132,"peculiar</w>":10133,"whil":10134,"calcul":10135,"grocery</w>":10136,"bump</w>":10137,"phic</w>":10138,"civil</w>":10139,"females</w>":10140,"johnson</w>":10141,"waist":10142,"receiver</w>":10143,"possess</w>":10144,"tool</w>":10145,"offers</w>":10146,"scoffed</w>":10147,"pupp":10148,"raphael</w>":10149,"eternal</w>":10150,"thief</w>":10151,"deputy</w>":10152,"particip":10153,"strategy</w>":10154,"offense</w>":10155,"medit":10156,"angela</w>":10157,"nikki</w>":10158,"aked</w>":10159,"wax</w>":10160,"fati":10161,"whilst</w>":10162,"reward</w>":10163,"operate</w>":10164,"headlights</w>":10165,"soda</w>":10166,"plot</w>":10167,"hairs</w>":10168,"picnic</w>":10169,"listed</w>":10170,"itions</w>":10171,"andrea</w>":10172,"abigail</w>":10173,"theo</w>":10174,"melting</w>":10175,"paja":10176,"lity</w>":10177,"organized</w>":10178,"metallic</w>":10179,"gesturing</w>":10180,"franci":10181,"florida</w>":10182,"gabrielle</w>":10183,"international</w>":10184,"titude</w>":10185,"bum</w>":10186,"boom</w>":10187,"tail":10188,"sneaking</w>":10189,"mothers</w>":10190,"kindness</w>":10191,"acon</w>":10192,"uncomfortably</w>":10193,"atively</w>":10194,"pierre</w>":10195,"power":10196,"rumble</w>":10197,"popping</w>":10198,"concealed</w>":10199,"printed</w>":10200,"intrigued</w>":10201,"briefcase</w>":10202,"tice</w>":10203,"strous</w>":10204,"honey":10205,"ging":10206,"cran":10207,"colour</w>":10208,"venti":10209,"pained</w>":10210,"engagement</w>":10211,"nash</w>":10212,"coats</w>":10213,"alities</w>":10214,"administr":10215,"thias</w>":10216,"sacrific":10217,"luther</w>":10218,"jury</w>":10219,"adds</w>":10220,"cob":10221,"coward</w>":10222,"automatic</w>":10223,"lu</w>":10224,"divine</w>":10225,"nadia</w>":10226,"iv":10227,"yells</w>":10228,"soli":10229,"shifts</w>":10230,"hant</w>":10231,"rose":10232,"excitedly</w>":10233,"ions</w>":10234,"shifters</w>":10235,"aging</w>":10236,"abe</w>":10237,"peek</w>":10238,"howard</w>":10239,"cellar</w>":10240,"receiving</w>":10241,"host":10242,"vimes</w>":10243,"simultaneously</w>":10244,"insist</w>":10245,"demean":10246,"suppre":10247,"rug</w>":10248,"diego</w>":10249,"rho":10250,"momma</w>":10251,"classroom</w>":10252,"wives</w>":10253,"traditional</w>":10254,"proven</w>":10255,"nin":10256,"enced</w>":10257,"conscience</w>":10258,"butler</w>":10259,"scratching</w>":10260,"implic":10261,"kitten</w>":10262,"anticipated</w>":10263,"sorcer":10264,"established</w>":10265,"worker</w>":10266,"hates</w>":10267,"itch</w>":10268,"forgi":10269,"audible</w>":10270,"clarity</w>":10271,"unison</w>":10272,"hot":10273,"vile":10274,"kenne":10275,"cheerful</w>":10276,"rank</w>":10277,"propo":10278,"enda</w>":10279,"raine</w>":10280,"must":10281,"moaning</w>":10282,"0s</w>":10283,"sober</w>":10284,"coughing</w>":10285,"ee</w>":10286,"intact</w>":10287,"dripped</w>":10288,"athle":10289,"motorcycle</w>":10290,"euro":10291,"cousins</w>":10292,"challenged</w>":10293,"buff":10294,"stair</w>":10295,"ili":10296,"anxiously</w>":10297,"mode</w>":10298,"enzie</w>":10299,"emerald</w>":10300,"americans</w>":10301,"eting</w>":10302,"evident</w>":10303,"fucked</w>":10304,"mitchell</w>":10305,"lydia</w>":10306,"practiced</w>":10307,"overnight</w>":10308,"bud</w>":10309,"bastards</w>":10310,".a.</w>":10311,"twenti":10312,"promptly</w>":10313,"overly</w>":10314,"mont":10315,"honesty</w>":10316,"ians</w>":10317,"slowing</w>":10318,"ay":10319,"toys</w>":10320,"ascen":10321,"silhou":10322,"beat":10323,"ush":10324,"jaws</w>":10325,"golf</w>":10326,"appeal</w>":10327,"wreck</w>":10328,"contrast</w>":10329,"lush</w>":10330,"wee</w>":10331,"pod</w>":10332,"anderson</w>":10333,"valent":10334,"cafe":10335,"accomplished</w>":10336,"mandy</w>":10337,"investigate</w>":10338,"presses</w>":10339,"grinding</w>":10340,"domen</w>":10341,"zi</w>":10342,"eo</w>":10343,"gee</w>":10344,"splashed</w>":10345,"inges</w>":10346,"ghtful</w>":10347,"restri":10348,"muddy</w>":10349,"mies</w>":10350,"headquarters</w>":10351,"peer</w>":10352,"25</w>":10353,"carolyn</w>":10354,"marrying</w>":10355,"banged</w>":10356,"gel</w>":10357,"bee":10358,"vivid</w>":10359,"mali":10360,"24</w>":10361,"layers</w>":10362,"valentine</w>":10363,"elders</w>":10364,"shadow":10365,"mour</w>":10366,"reid</w>":10367,"powered</w>":10368,"grea":10369,"clinic</w>":10370,"thresho":10371,"folder</w>":10372,"rory</w>":10373,"dump</w>":10374,"apollo</w>":10375,"majority</w>":10376,"japan":10377,"arming</w>":10378,"cigarettes</w>":10379,"chick</w>":10380,"scientists</w>":10381,"choke</w>":10382,"arity</w>":10383,"goin'</w>":10384,"unseen</w>":10385,"labor</w>":10386,"lone</w>":10387,"privile":10388,"pier</w>":10389,"barry</w>":10390,"acceptable</w>":10391,"inspector</w>":10392,"22</w>":10393,"mick</w>":10394,"performed</w>":10395,"ballo":10396,"ivan</w>":10397,"occasions</w>":10398,"twitch</w>":10399,"lucian</w>":10400,"jerking</w>":10401,"japanese</w>":10402,"therapy</w>":10403,"mill</w>":10404,"chatting</w>":10405,"ups</w>":10406,"precise</w>":10407,"mainly</w>":10408,"relent":10409,"poo":10410,"beck</w>":10411,"regretted</w>":10412,"suspended</w>":10413,"episo":10414,"rau":10415,"lynn</w>":10416,"graceful</w>":10417,"admire</w>":10418,"tad</w>":10419,"fights</w>":10420,"adri":10421,"pub</w>":10422,"adverti":10423,"outline</w>":10424,"magne":10425,"revolu":10426,"hyp":10427,"padded</w>":10428,"hypo":10429,"evie</w>":10430,"town":10431,"sum</w>":10432,"quali":10433,"overheard</w>":10434,"gasps</w>":10435,"dedly</w>":10436,"mina</w>":10437,"kidnapped</w>":10438,"ulted</w>":10439,"philoso":10440,"discar":10441,"veil</w>":10442,"sandwich":10443,"olive</w>":10444,"crow</w>":10445,"impro":10446,"c'":10447,"leaf</w>":10448,"reapp":10449,"frequently</w>":10450,"messen":10451,"threshold</w>":10452,"gaped</w>":10453,"ett</w>":10454,"dice</w>":10455,"bryn":10456,"urgency</w>":10457,"pm</w>":10458,"enhan":10459,"ves":10460,"founded</w>":10461,"ures</w>":10462,"lind":10463,"tickets</w>":10464,"slit</w>":10465,"smack</w>":10466,"tying</w>":10467,"obedi":10468,"ase</w>":10469,"messenger</w>":10470,"minent</w>":10471,"lords</w>":10472,"nurses</w>":10473,"character":10474,"principal</w>":10475,"cooler</w>":10476,"bundle</w>":10477,"taut</w>":10478,"previously</w>":10479,"rus</w>":10480,"enjoy":10481,"critical</w>":10482,"plague</w>":10483,"copper</w>":10484,"plucked</w>":10485,"kenny</w>":10486,"craig</w>":10487,"vali":10488,"electronic</w>":10489,"virginia</w>":10490,"towers</w>":10491,"slan":10492,"lins</w>":10493,"motor</w>":10494,"terminal</w>":10495,"maze</w>":10496,"lessness</w>":10497,"sleek</w>":10498,"interrupt</w>":10499,"lucan</w>":10500,"descent</w>":10501,"coke</w>":10502,"appet":10503,"alize</w>":10504,"huffed</w>":10505,"maddy</w>":10506,"hero":10507,"partners</w>":10508,"rises</w>":10509,"mae</w>":10510,"bliss</w>":10511,"balanced</w>":10512,"windshield</w>":10513,"accounts</w>":10514,"warily</w>":10515,"selected</w>":10516,"ree":10517,"manners</w>":10518,"forbidden</w>":10519,"compassion</w>":10520,"fau":10521,"buckled</w>":10522,"tighten</w>":10523,"fairs</w>":10524,"jolt</w>":10525,"hunted</w>":10526,"clenching</w>":10527,"wren</w>":10528,"experiment</w>":10529,"discipl":10530,"hl</w>":10531,"witnesses</w>":10532,"glove</w>":10533,"sheepi":10534,"layla</w>":10535,"calvin</w>":10536,"trips</w>":10537,"ino</w>":10538,"seattle</w>":10539,"startling</w>":10540,"tec":10541,"grasping</w>":10542,"veron":10543,"swit":10544,"nanny</w>":10545,"calcu":10546,":00</w>":10547,"feast</w>":10548,"authorities</w>":10549,"conqu":10550,"freed</w>":10551,"sweetly</w>":10552,"transfer</w>":10553,"thrusting</w>":10554,"pickup</w>":10555,"winston</w>":10556,"moral</w>":10557,"lattered</w>":10558,"foundation</w>":10559,"tourists</w>":10560,"nin</w>":10561,"marsha":10562,"essa</w>":10563,"drunken</w>":10564,"sipping</w>":10565,"exposing</w>":10566,"engul":10567,"inquired</w>":10568,"techni":10569,"veling</w>":10570,"crowds</w>":10571,"unbear":10572,"throws</w>":10573,"dwell</w>":10574,"slapping</w>":10575,"teams</w>":10576,"element</w>":10577,".c.</w>":10578,"increase</w>":10579,"chester</w>":10580,"scientist</w>":10581,"jonah</w>":10582,"burea":10583,"stures</w>":10584,"river":10585,"growling</w>":10586,"ramp</w>":10587,"neared</w>":10588,"perspective</w>":10589,"fix":10590,"nan":10591,"gobl":10592,"sufficient</w>":10593,"sail":10594,"belongs</w>":10595,"unmista":10596,"increasing</w>":10597,"troll</w>":10598,"lacey</w>":10599,"visibly</w>":10600,"dessert</w>":10601,"stes</w>":10602,"entertainment</w>":10603,"relev":10604,"stati":10605,"cere</w>":10606,"hilt</w>":10607,"oma</w>":10608,"loosened</w>":10609,"retorted</w>":10610,"maintained</w>":10611,"packs</w>":10612,"extraordinary</w>":10613,"embraced</w>":10614,"oon</w>":10615,"communicate</w>":10616,"scol":10617,"desig":10618,"surveyed</w>":10619,"cradled</w>":10620,"reins</w>":10621,"peak</w>":10622,"stel":10623,"dine</w>":10624,"ruins</w>":10625,"relative</w>":10626,"indication</w>":10627,"respect":10628,"cafeteria</w>":10629,"wil</w>":10630,"dela":10631,"vest":10632,"quil":10633,"banging</w>":10634,"supernatural</w>":10635,"departure</w>":10636,"lifeless</w>":10637,"extent</w>":10638,"successfully</w>":10639,"production</w>":10640,"ci</w>":10641,"gregory</w>":10642,"sar</w>":10643,"flare</w>":10644,"wick":10645,"irish</w>":10646,"flee</w>":10647,"sincere</w>":10648,"residence</w>":10649,"kerchief</w>":10650,"iron":10651,"filed</w>":10652,"employee</w>":10653,"patr":10654,"interests</w>":10655,"condom</w>":10656,"posture</w>":10657,"reference</w>":10658,"ronan</w>":10659,"hill":10660,"ditch</w>":10661,"thea</w>":10662,"warming</w>":10663,"bellowed</w>":10664,"limo</w>":10665,"goat</w>":10666,"enfor":10667,"basket":10668,"destroying</w>":10669,"drawers</w>":10670,"diamonds</w>":10671,"dingly</w>":10672,"passionate</w>":10673,"lugg":10674,"vain</w>":10675,"copy":10676,"nephew</w>":10677,"gies</w>":10678,"tattoos</w>":10679,"steaming</w>":10680,"sedly</w>":10681,"iser</w>":10682,"float</w>":10683,"davis</w>":10684,"colorful</w>":10685,"zeus</w>":10686,"sixth</w>":10687,"ricky</w>":10688,"reu":10689,"chambers</w>":10690,"regain</w>":10691,"cit":10692,"ashes</w>":10693,"apr":10694,"francisco</w>":10695,"darren</w>":10696,"walk":10697,"earning</w>":10698,"breed</w>":10699,"advised</w>":10700,"luggage</w>":10701,"playfully</w>":10702,"nath":10703,"lette</w>":10704,"erik</w>":10705,"yawned</w>":10706,"thorn</w>":10707,"needles</w>":10708,"lamps</w>":10709,"agging</w>":10710,"tasting</w>":10711,"protru":10712,"welcoming</w>":10713,"transformed</w>":10714,"lef":10715,"tsy</w>":10716,"cafe</w>":10717,"instance</w>":10718,"gallo":10719,"mesm":10720,"tracing</w>":10721,"obs</w>":10722,"bedro":10723,"poe":10724,"tennis</w>":10725,"wool</w>":10726,"bass</w>":10727,"straps</w>":10728,"responding</w>":10729,"marty</w>":10730,"rece":10731,"omy</w>":10732,"candi":10733,"sauce</w>":10734,"stac":10735,"casin":10736,"gos</w>":10737,"openly</w>":10738,"masters</w>":10739,"nolan</w>":10740,"freaked</w>":10741,"cruci":10742,"controlla":10743,"proceed</w>":10744,"planes</w>":10745,"fascinating</w>":10746,"cara":10747,"dall</w>":10748,"coffin</w>":10749,"proto":10750,"drives</w>":10751,"deepened</w>":10752,"bust</w>":10753,"atives</w>":10754,"streaked</w>":10755,"masculine</w>":10756,"iner</w>":10757,"dren":10758,"emotionally</w>":10759,"fing</w>":10760,"situations</w>":10761,"madeline</w>":10762,"refre":10763,"doubled</w>":10764,"disting":10765,"perimeter</w>":10766,"freshly</w>":10767,"opy</w>":10768,"zards</w>":10769,"eagle</w>":10770,"selena</w>":10771,"nightstand</w>":10772,"lame</w>":10773,"squat":10774,"legen":10775,"kaladin</w>":10776,"unlea":10777,"skye</w>":10778,"shimmering</w>":10779,"heaving</w>":10780,"haul</w>":10781,"hurriedly</w>":10782,"fortress</w>":10783,"excep":10784,"deserves</w>":10785,"cattle</w>":10786,"pulsed</w>":10787,"pulsing</w>":10788,"baby":10789,"wyatt</w>":10790,"droo":10791,"campaign</w>":10792,"customer</w>":10793,"bargain</w>":10794,"thirsty</w>":10795,"sterling</w>":10796,"pirate</w>":10797,"mikha":10798,"imperi":10799,"october</w>":10800,"flinch</w>":10801,"ami</w>":10802,"sickness</w>":10803,"gerald</w>":10804,"bani":10805,"max":10806,"container</w>":10807,"occup":10808,"doms</w>":10809,"ich</w>":10810,"remn":10811,"divided</w>":10812,"horns</w>":10813,"potat":10814,"rag</w>":10815,"aroused</w>":10816,"tabi":10817,"whimpered</w>":10818,"vines</w>":10819,"disguise</w>":10820,"region</w>":10821,"local":10822,"guardians</w>":10823,"sors</w>":10824,"ini</w>":10825,"drums</w>":10826,"congratulations</w>":10827,"lethal</w>":10828,"creep</w>":10829,"succeed</w>":10830,"squealed</w>":10831,"lish":10832,"terror":10833,"rina</w>":10834,"curly</w>":10835,"shaw</w>":10836,"potatoes</w>":10837,"verge</w>":10838,"diary</w>":10839,"satin</w>":10840,"ola</w>":10841,"ficial</w>":10842,"dorm</w>":10843,"span":10844,"sobbed</w>":10845,"pumped</w>":10846,"bout</w>":10847,"ginger</w>":10848,"franklin</w>":10849,"tremen":10850,"knots</w>":10851,"stairwell</w>":10852,"flirting</w>":10853,"dani</w>":10854,"subur":10855,"pump</w>":10856,"mocking</w>":10857,"yank</w>":10858,"lil</w>":10859,"giggles</w>":10860,"warden</w>":10861,"hushed</w>":10862,"tasha</w>":10863,"temptation</w>":10864,"trails</w>":10865,"hesitantly</w>":10866,"snaps</w>":10867,"mikhail</w>":10868,"blessing</w>":10869,"skele":10870,"assist</w>":10871,"willi":10872,"wardro":10873,"dim":10874,"vital</w>":10875,"ros":10876,"rens</w>":10877,"slips</w>":10878,"archer</w>":10879,"swelled</w>":10880,"gon":10881,"shannon</w>":10882,"mesmeri":10883,"entary</w>":10884,"christi":10885,"basketball</w>":10886,"uno":10887,"youngest</w>":10888,"tabitha</w>":10889,"terior</w>":10890,"jewel</w>":10891,"suitable</w>":10892,"tier</w>":10893,"elie</w>":10894,"bugs</w>":10895,"itlyn</w>":10896,"slur":10897,"drown</w>":10898,"referred</w>":10899,"companies</w>":10900,"towering</w>":10901,"eman":10902,"composure</w>":10903,"ranks</w>":10904,"product</w>":10905,"oven</w>":10906,"jasper</w>":10907,"gori</w>":10908,"wild":10909,"perpe":10910,"bitterly</w>":10911,"surveill":10912,"archie</w>":10913,"rail":10914,"cope</w>":10915,"surveillance</w>":10916,"ado</w>":10917,"sympathetic</w>":10918,"enchan":10919,"exotic</w>":10920,"dget</w>":10921,"elves</w>":10922,"snakes</w>":10923,"manny</w>":10924,"blamed</w>":10925,"venture</w>":10926,"weeping</w>":10927,"neal</w>":10928,"alternative</w>":10929,"immun":10930,"pursuit</w>":10931,"painter</w>":10932,"healer</w>":10933,"endure</w>":10934,"colum":10935,"mildly</w>":10936,"sale":10937,"bait</w>":10938,"bubba</w>":10939,"operations</w>":10940,"handling</w>":10941,"erotic</w>":10942,"dign":10943,"guer":10944,"composed</w>":10945,"stile</w>":10946,"rion</w>":10947,"nat</w>":10948,"suggesti":10949,"orleans</w>":10950,"dispat":10951,"descending</w>":10952,"complaining</w>":10953,"vengeance</w>":10954,"tradition</w>":10955,"serves</w>":10956,"ellit":10957,"uncontrolla":10958,"tumbling</w>":10959,"ogra":10960,"buttoned</w>":10961,"hend</w>":10962,"satellit":10963,"remark</w>":10964,"pand":10965,"caressing</w>":10966,"lov":10967,"weed</w>":10968,"sway</w>":10969,"wheeled</w>":10970,"beau</w>":10971,"talon</w>":10972,"spac":10973,"rotten</w>":10974,"reverse</w>":10975,"stumble</w>":10976,"controlling</w>":10977,"anony":10978,"outward</w>":10979,"mira</w>":10980,"scooted</w>":10981,"craw":10982,"harley</w>":10983,"colby</w>":10984,"liquor</w>":10985,"excuses</w>":10986,"syr":10987,"vivian</w>":10988,"school":10989,"acquaint":10990,"vau":10991,"rowan</w>":10992,"jammed</w>":10993,"fried</w>":10994,"fastened</w>":10995,"vanessa</w>":10996,"thom</w>":10997,"commercial</w>":10998,"zio</w>":10999,"twined</w>":11000,"eted</w>":11001,"charging</w>":11002,"inched</w>":11003,"greatly</w>":11004,"controls</w>":11005,"household</w>":11006,"beans</w>":11007,"brianna</w>":11008,"celebration</w>":11009,"uti":11010,"trage":11011,"ppery</w>":11012,"dab":11013,"behave</w>":11014,"slower</w>":11015,"heir</w>":11016,"elements</w>":11017,"costume</w>":11018,"silas</w>":11019,"bursting</w>":11020,"purposes</w>":11021,"vari":11022,"abdomen</w>":11023,"crimes</w>":11024,"amen":11025,"clawed</w>":11026,"supported</w>":11027,"magazines</w>":11028,"bared</w>":11029,"confession</w>":11030,"affairs</w>":11031,"hush</w>":11032,"angles</w>":11033,"paraly":11034,"tingling</w>":11035,"angus</w>":11036,"crisis</w>":11037,"suz":11038,"spin":11039,"poker</w>":11040,"ingy</w>":11041,"courtney</w>":11042,"21</w>":11043,"gleamed</w>":11044,"zipper</w>":11045,"soaking</w>":11046,"shields</w>":11047,"galax":11048,"rape</w>":11049,"faye</w>":11050,"harmon":11051,"diplo":11052,"zily</w>":11053,"triumph</w>":11054,"mbo</w>":11055,"alarmed</w>":11056,"raven":11057,"benny</w>":11058,"stles</w>":11059,"ounted</w>":11060,"logue</w>":11061,"heavier</w>":11062,"straw":11063,"etched</w>":11064,"glistening</w>":11065,"outcome</w>":11066,"handy</w>":11067,"abuse</w>":11068,"manor</w>":11069,"ero":11070,"cation</w>":11071,"apply</w>":11072,"finest</w>":11073,"tiness</w>":11074,"doorbell</w>":11075,"casca":11076,"shuttle</w>":11077,"comparison</w>":11078,"dirk</w>":11079,"tiles</w>":11080,"showered</w>":11081,"impulse</w>":11082,"40</w>":11083,"oed</w>":11084,"blankly</w>":11085,"alliance</w>":11086,"adopted</w>":11087,"cers</w>":11088,"ama</w>":11089,"ara":11090,"fills</w>":11091,"uncertainty</w>":11092,"ruled</w>":11093,"lucia</w>":11094,"lantern</w>":11095,"haley</w>":11096,"agoni":11097,"seren":11098,"bitten</w>":11099,"cedes</w>":11100,"races</w>":11101,"groaning</w>":11102,"vigor":11103,"tens</w>":11104,"distinc":11105,"annab":11106,"sali":11107,"revelation</w>":11108,"roommate</w>":11109,"toxic":11110,"tempting</w>":11111,"piles</w>":11112,"hideous</w>":11113,"frowns</w>":11114,"fare":11115,"clubs</w>":11116,"tuck</w>":11117,"alexia</w>":11118,"vish</w>":11119,"rot":11120,"litting</w>":11121,"leaping</w>":11122,"behalf</w>":11123,"blings</w>":11124,"berries</w>":11125,"spas":11126,"junk</w>":11127,"'l</w>":11128,"parlor</w>":11129,"vals</w>":11130,"ugh</w>":11131,"supre":11132,"navig":11133,"juliet</w>":11134,"whistled</w>":11135,"veronica</w>":11136,"reuben</w>":11137,"quan":11138,"predictable</w>":11139,"exquisite</w>":11140,"adequ":11141,"dissi":11142,"connections</w>":11143,"astonishment</w>":11144,"accomplish</w>":11145,"lash</w>":11146,"sub</w>":11147,"repeating</w>":11148,"prefer":11149,"elu":11150,"conflict</w>":11151,"wars</w>":11152,"veri":11153,"sprinted</w>":11154,"amusing</w>":11155,"tton</w>":11156,"sentin":11157,"someplace</w>":11158,"admiral</w>":11159,"wade</w>":11160,"linen</w>":11161,"niece</w>":11162,"eyela":11163,"dr</w>":11164,"paradise</w>":11165,"loomed</w>":11166,"eyelashes</w>":11167,"anguish</w>":11168,"helplessly</w>":11169,"¨c</w>":11170,"chand":11171,"surreal</w>":11172,"mann</w>":11173,"traitor</w>":11174,"manife":11175,"milton</w>":11176,"carly</w>":11177,"stammered</w>":11178,"payment</w>":11179,"grove</w>":11180,"resembled</w>":11181,"brandy</w>":11182,"symp":11183,"killers</w>":11184,"swiped</w>":11185,"suggesting</w>":11186,"yway</w>":11187,"shattering</w>":11188,"edition</w>":11189,"chie</w>":11190,"noelle</w>":11191,"label":11192,"gross</w>":11193,"gret":11194,"pill</w>":11195,"risen</w>":11196,"reduced</w>":11197,"lywood</w>":11198,"cath":11199,"umb":11200,"involun":11201,"awakened</w>":11202,"india</w>":11203,"sandra</w>":11204,"noting</w>":11205,"darting</w>":11206,"wardrobe</w>":11207,"sarcastically</w>":11208,"wilson</w>":11209,"ultimately</w>":11210,"lila</w>":11211,"legged</w>":11212,"i'm</w>":11213,"tionist</w>":11214,"gang":11215,"iry</w>":11216,"depressed</w>":11217,"microphone</w>":11218,"arts</w>":11219,"demeanor</w>":11220,"wig</w>":11221,"glint</w>":11222,"dusk</w>":11223,"thumb":11224,"kade</w>":11225,"increasingly</w>":11226,"stalking</w>":11227,"cupping</w>":11228,"published</w>":11229,"succu":11230,"speech":11231,"review</w>":11232,"recorded</w>":11233,"matically</w>":11234,"farmer</w>":11235,"splash</w>":11236,"slack</w>":11237,"icians</w>":11238,"mathe":11239,"//</w>":11240,"sneered</w>":11241,"encourag":11242,"signature</w>":11243,"contacts</w>":11244,"piti":11245,"marsh</w>":11246,"leton</w>":11247,"conner</w>":11248,"tooth</w>":11249,"spectacu":11250,"punished</w>":11251,"19</w>":11252,"tily</w>":11253,"reader</w>":11254,"obeyed</w>":11255,"millie</w>":11256,"supervi":11257,"septem":11258,"scalp</w>":11259,"skies</w>":11260,"fuzzy</w>":11261,"eau</w>":11262,"confusing</w>":11263,"colton</w>":11264,"resolved</w>":11265,"partments</w>":11266,"punching</w>":11267,"swings</w>":11268,"experiences</w>":11269,"backup</w>":11270,"hound</w>":11271,"ala</w>":11272,"september</w>":11273,"cookie</w>":11274,"convul":11275,"norman</w>":11276,"quivering</w>":11277,"monkey</w>":11278,"inform</w>":11279,"identified</w>":11280,"gleam</w>":11281,"wraps</w>":11282,"thia</w>":11283,"suspicions</w>":11284,"tanned</w>":11285,"gloom</w>":11286,"steri":11287,"acceptance</w>":11288,"mans</w>":11289,"bracelet</w>":11290,"200":11291,"hul":11292,"stations</w>":11293,"ile</w>":11294,"supposedly</w>":11295,"anchor</w>":11296,"sels</w>":11297,"rav":11298,"aggressive</w>":11299,"snuck</w>":11300,"entially</w>":11301,"ud</w>":11302,"bever":11303,"voy":11304,"mari</w>":11305,"clip</w>":11306,"siblings</w>":11307,"ezra</w>":11308,"pam</w>":11309,"murmurs</w>":11310,"confess</w>":11311,"nestled</w>":11312,"mob</w>":11313,"detected</w>":11314,"dreadful</w>":11315,"shawn</w>":11316,"radar</w>":11317,"lock":11318,"bited</w>":11319,"bers</w>":11320,"playful</w>":11321,"hudson</w>":11322,"africa</w>":11323,"model":11324,"handkerchief</w>":11325,"tucking</w>":11326,"blaze</w>":11327,"hesitant</w>":11328,"whee":11329,"array</w>":11330,"towns</w>":11331,"pepper</w>":11332,"moans</w>":11333,"ium</w>":11334,"diver":11335,"yourselves</w>":11336,"captive</w>":11337,"scenario</w>":11338,"soever</w>":11339,"federal</w>":11340,"carolina</w>":11341,"scientific</w>":11342,"depending</w>":11343,"oath</w>":11344,"mitted</w>":11345,"decade</w>":11346,"spiritual</w>":11347,"reese</w>":11348,"neutral</w>":11349,"rehear":11350,"ebe</w>":11351,"stran":11352,"marissa</w>":11353,"ghtens</w>":11354,"dox</w>":11355,"conj":11356,"reporters</w>":11357,"commitment</w>":11358,"jee":11359,"discarded</w>":11360,"capit":11361,"apron</w>":11362,"shriek</w>":11363,"coated</w>":11364,"appreciation</w>":11365,"dimly</w>":11366,"chapel</w>":11367,"spl":11368,"anti</w>":11369,"pets</w>":11370,"tuous</w>":11371,"evelyn</w>":11372,"couples</w>":11373,"prick</w>":11374,"rescued</w>":11375,"patting</w>":11376,"clair</w>":11377,"desires</w>":11378,"easing</w>":11379,"htt":11380,"emptied</w>":11381,"achieve</w>":11382,"lexie</w>":11383,"interrupting</w>":11384,"gingerly</w>":11385,"aster":11386,"limb</w>":11387,"typed</w>":11388,"observation</w>":11389,"calming</w>":11390,"shocking</w>":11391,"rr":11392,"apologized</w>":11393,"actor</w>":11394,"---</w>":11395,"sites</w>":11396,"abbey</w>":11397,"thly</w>":11398,"barking</w>":11399,"vamp</w>":11400,"whit":11401,"nausea</w>":11402,"messing</w>":11403,"hayden</w>":11404,"checks</w>":11405,"appetite</w>":11406,"tcher</w>":11407,"feather</w>":11408,"moisture</w>":11409,"coldly</w>":11410,"mish</w>":11411,"isolated</w>":11412,"generations</w>":11413,"evo":11414,"snort</w>":11415,"sable</w>":11416,"harold</w>":11417,"gunner</w>":11418,"deaf":11419,"chunk</w>":11420,"45</w>":11421,"muted</w>":11422,"commit</w>":11423,"robots</w>":11424,"gazes</w>":11425,"fluttering</w>":11426,"kills</w>":11427,"busted</w>":11428,"grimace</w>":11429,"yin</w>":11430,"shuffling</w>":11431,"ribbon</w>":11432,"hating</w>":11433,"beef</w>":11434,"unexpec":11435,"figuring</w>":11436,"coher":11437,"solar</w>":11438,"distribu":11439,"arena</w>":11440,"ou</w>":11441,"undoub":11442,"wires</w>":11443,"racks</w>":11444,"relevant</w>":11445,"custody</w>":11446,"capacity</w>":11447,"ecstasy</w>":11448,"ouring</w>":11449,"fraction</w>":11450,"cruise</w>":11451,"unner":11452,"mercedes</w>":11453,"strides</w>":11454,"boulder</w>":11455,"scarlett</w>":11456,"gulp</w>":11457,"undoubtedly</w>":11458,"bandage</w>":11459,"granite</w>":11460,"betray</w>":11461,"nished</w>":11462,"mound</w>":11463,"caves</w>":11464,"substan":11465,"glued</w>":11466,"gings</w>":11467,"boiling</w>":11468,"punish</w>":11469,"bursts</w>":11470,"bony</w>":11471,"permanently</w>":11472,"lola</w>":11473,"dizz":11474,"aiming</w>":11475,"transm":11476,"100</w>":11477,"uary</w>":11478,"escal":11479,"rosie</w>":11480,"resigned</w>":11481,"shuddering</w>":11482,"concentrating</w>":11483,"cheri":11484,"check":11485,"grows</w>":11486,"rider</w>":11487,"vegetables</w>":11488,"relatives</w>":11489,"miss":11490,"bernard</w>":11491,"pandora</w>":11492,"fie</w>":11493,"scarred</w>":11494,"georgia</w>":11495,"vomit</w>":11496,"vated</w>":11497,"snarl</w>":11498,"astonished</w>":11499,"explor":11500,"announcement</w>":11501,"cale</w>":11502,"paces</w>":11503,"gregori</w>":11504,"vacant</w>":11505,"operating</w>":11506,"meta":11507,"upwards</w>":11508,"towels</w>":11509,"laurel</w>":11510,"dancer</w>":11511,"b.</w>":11512,"pup":11513,"bronze</w>":11514,"rumor</w>":11515,"pyra":11516,"owners</w>":11517,"independent</w>":11518,"division</w>":11519,"sharon</w>":11520,"policy</w>":11521,"howled</w>":11522,"containing</w>":11523,"clues</w>":11524,"princi":11525,"fergus</w>":11526,"compartment</w>":11527,"spoo":11528,"exploring</w>":11529,"blushing</w>":11530,"bewildered</w>":11531,"sends</w>":11532,"paige</w>":11533,"mutual</w>":11534,"gha":11535,"candace</w>":11536,"torment</w>":11537,"dic</w>":11538,"transferred</w>":11539,"spoiled</w>":11540,"court":11541,"amp":11542,"flatly</w>":11543,"buck":11544,"fighters</w>":11545,"harris</w>":11546,"fathers</w>":11547,"chir":11548,"speakers</w>":11549,"adorable</w>":11550,"sandwiches</w>":11551,"notic":11552,"personnel</w>":11553,"cape</w>":11554,"198":11555,"speechless</w>":11556,"chatter</w>":11557,"bouts</w>":11558,"shaved</w>":11559,"onably</w>":11560,"mutter</w>":11561,"lass</w>":11562,"arc</w>":11563,"lore":11564,"doyle</w>":11565,"committee</w>":11566,"sai":11567,"rell</w>":11568,"recording</w>":11569,"randy</w>":11570,"scenes</w>":11571,"shadowed</w>":11572,"parting</w>":11573,"ronnie</w>":11574,"intoxic":11575,"scarcely</w>":11576,"cot</w>":11577,"convenience</w>":11578,"commands</w>":11579,"borrow</w>":11580,"cheating</w>":11581,"mick":11582,"w.":11583,"agitated</w>":11584,"jay":11585,"cindy</w>":11586,"battles</w>":11587,"defined</w>":11588,"ddened</w>":11589,"thel</w>":11590,"sagged</w>":11591,"pupils</w>":11592,"condem":11593,"harmless</w>":11594,"tac":11595,"harvey</w>":11596,"cun":11597,"badge</w>":11598,"flopped</w>":11599,"departed</w>":11600,"aval":11601,"ivory</w>":11602,"whatsoever</w>":11603,"prophecy</w>":11604,"paired</w>":11605,"dip</w>":11606,"caf":11607,"springs</w>":11608,"battery</w>":11609,"recommen":11610,"debate</w>":11611,"classic</w>":11612,"rotting</w>":11613,"howl</w>":11614,"hailey</w>":11615,"unexpectedly</w>":11616,"mechanical</w>":11617,"err":11618,"attic</w>":11619,"hopeless</w>":11620,"steal":11621,"country":11622,"quicker</w>":11623,"raked</w>":11624,"flexed</w>":11625,"swelling</w>":11626,"unwilling</w>":11627,"exasperated</w>":11628,"jewels</w>":11629,"hollywood</w>":11630,"shadowy</w>":11631,"gretchen</w>":11632,"wears</w>":11633,"ssell</w>":11634,"sas</w>":11635,"document</w>":11636,"comprehend</w>":11637,"c'mon</w>":11638,"importantly</w>":11639,"flynn</w>":11640,"trigg":11641,"glided</w>":11642,"skul":11643,"indicate</w>":11644,"zel":11645,"scraping</w>":11646,"lori</w>":11647,"dodge</w>":11648,"outing</w>":11649,"reassure</w>":11650,"priests</w>":11651,"kendall</w>":11652,"abdu":11653,"benja":11654,"texted</w>":11655,"mackenzie</w>":11656,"ysis</w>":11657,"tian</w>":11658,"islands</w>":11659,"bedded</w>":11660,"providing</w>":11661,"underworld</w>":11662,"kayla</w>":11663,"courtesy</w>":11664,"sailing</w>":11665,"muscled</w>":11666,"cany":11667,"twitching</w>":11668,"twilight</w>":11669,"jumps</w>":11670,"short":11671,"countries</w>":11672,"immense</w>":11673,"lain</w>":11674,"proposal</w>":11675,"phoebe</w>":11676,"elessly</w>":11677,"approve</w>":11678,"ang</w>":11679,"visits</w>":11680,"potent</w>":11681,"electrical</w>":11682,"regained</w>":11683,"singer</w>":11684,"nicolas</w>":11685,"nay</w>":11686,"smol":11687,"rable</w>":11688,"morris</w>":11689,"gram</w>":11690,"rey":11691,"bleed</w>":11692,"pol</w>":11693,"howling</w>":11694,"avi":11695,"static</w>":11696,"clicking</w>":11697,"paranoid</w>":11698,"commotion</w>":11699,"snuggled</w>":11700,"survivors</w>":11701,"etta</w>":11702,"causes</w>":11703,"lurking</w>":11704,"hypnoti":11705,"unbelievable</w>":11706,"tavern</w>":11707,"tragedy</w>":11708,"subjects</w>":11709,"abrupt</w>":11710,"stupi":11711,"patches</w>":11712,"clark</w>":11713,"tunic</w>":11714,"white":11715,"negle":11716,"impress</w>":11717,"compul":11718,"bennett</w>":11719,"matches</w>":11720,"littered</w>":11721,"alysis</w>":11722,"designer</w>":11723,"sson</w>":11724,"fixing</w>":11725,"fletcher</w>":11726,"dose</w>":11727,"stacy</w>":11728,"pathy</w>":11729,"muster</w>":11730,"smashwords</w>":11731,"borne</w>":11732,"laser</w>":11733,"stering</w>":11734,"remor":11735,"nas":11736,"managing</w>":11737,"skit":11738,"imper":11739,"forgiveness</w>":11740,"intensi":11741,"substance</w>":11742,"involve</w>":11743,"annabelle</w>":11744,"wal</w>":11745,"measured</w>":11746,"server</w>":11747,"scheme</w>":11748,"disori":11749,"phili":11750,"corpses</w>":11751,"ballroom</w>":11752,"admiring</w>":11753,"bruise</w>":11754,"foli":11755,"creative</w>":11756,"pal</w>":11757,"imit":11758,"kathy</w>":11759,"helena</w>":11760,"butterflies</w>":11761,"perio":11762,"pag":11763,"ideal</w>":11764,"benjamin</w>":11765,"pouch</w>":11766,"applic":11767,"23</w>":11768,"january</w>":11769,"warded</w>":11770,"solem":11771,"flattened</w>":11772,"connecting</w>":11773,"barbara</w>":11774,"tfully</w>":11775,"love":11776,"erson</w>":11777,"beautifully</w>":11778,"zachary</w>":11779,"cramped</w>":11780,"sensations</w>":11781,"lah</w>":11782,"brooks</w>":11783,"yanking</w>":11784,"nape</w>":11785,"worm</w>":11786,"brai":11787,"groin</w>":11788,"unmistakable</w>":11789,"richar":11790,"hummed</w>":11791,"devices</w>":11792,"considerable</w>":11793,"standar":11794,"streamed</w>":11795,"placement</w>":11796,"temporarily</w>":11797,"marshal</w>":11798,"elend</w>":11799,"acid</w>":11800,"attending</w>":11801,"sparkled</w>":11802,"ister</w>":11803,"bears</w>":11804,"road":11805,"mably</w>":11806,"corporate</w>":11807,"squi":11808,"november</w>":11809,"dart</w>":11810,"sprink":11811,"come":11812,"austr":11813,"gloria</w>":11814,"policeman</w>":11815,"craved</w>":11816,"comra":11817,"thee</w>":11818,"baf":11819,"martha</w>":11820,"casino</w>":11821,"wonders</w>":11822,"method</w>":11823,"gwen":11824,"discer":11825,"sights</w>":11826,"skilled</w>":11827,"assembled</w>":11828,"collecting</w>":11829,"tos</w>":11830,"brock</w>":11831,"robbie</w>":11832,"rita</w>":11833,"lawrence</w>":11834,"splen":11835,"conviction</w>":11836,"odor</w>":11837,"econom":11838,"corridors</w>":11839,"copyright</w>":11840,"russell</w>":11841,"regularly</w>":11842,"viktor</w>":11843,"hay</w>":11844,"lipstick</w>":11845,"bart</w>":11846,"ticked</w>":11847,"skepti":11848,"hears</w>":11849,"eman</w>":11850,"tents</w>":11851,"bathed</w>":11852,"awaiting</w>":11853,"tres</w>":11854,"surprises</w>":11855,"streak</w>":11856,"sire</w>":11857,"applause</w>":11858,"louise</w>":11859,"caine</w>":11860,"scrun":11861,"mars</w>":11862,"dismay</w>":11863,"chimed</w>":11864,"ship":11865,"supporting</w>":11866,"colleagues</w>":11867,"medium</w>":11868,"jaime</w>":11869,"decem":11870,"chilly</w>":11871,"tammy</w>":11872,"rippled</w>":11873,"presumably</w>":11874,"pondered</w>":11875,"chron":11876,"ata</w>":11877,"gordon</w>":11878,"bane</w>":11879,"stew</w>":11880,"sirens</w>":11881,"rah</w>":11882,"priority</w>":11883,"stric":11884,"kra":11885,"wry</w>":11886,"hull</w>":11887,"gio</w>":11888,"kai</w>":11889,"ggles</w>":11890,"fty</w>":11891,"steak</w>":11892,"flutter</w>":11893,"stil</w>":11894,"confront</w>":11895,"nathani":11896,"tilt</w>":11897,"shelby</w>":11898,"pop":11899,"harshly</w>":11900,"ov</w>":11901,"guarding</w>":11902,"unbearable</w>":11903,"accompany</w>":11904,"ominous</w>":11905,"mbered</w>":11906,"ruler</w>":11907,"elep":11908,"denying</w>":11909,"makeshift</w>":11910,"inar</w>":11911,"wept</w>":11912,"throbbed</w>":11913,"pee</w>":11914,"itution</w>":11915,"infli":11916,"asha</w>":11917,"poster</w>":11918,"plastered</w>":11919,"honored</w>":11920,"concert</w>":11921,"sophistic":11922,"idly</w>":11923,"burger</w>":11924,"panted</w>":11925,"grandparents</w>":11926,"tenderly</w>":11927,"harmed</w>":11928,"commanding</w>":11929,"pent</w>":11930,"angelo</w>":11931,"suffo":11932,"sienna</w>":11933,"disda":11934,"chorus</w>":11935,"bates</w>":11936,"nel":11937,"praise</w>":11938,"paci":11939,"vowed</w>":11940,"lishment</w>":11941,"primary</w>":11942,"backside</w>":11943,"rear":11944,"posted</w>":11945,"writhing</w>":11946,"momentum</w>":11947,"encouraging</w>":11948,"enting</w>":11949,"december</w>":11950,"whipping</w>":11951,"threaten</w>":11952,"uniforms</w>":11953,"stiffly</w>":11954,"camil":11955,"gestures</w>":11956,"proced":11957,"chuckling</w>":11958,"shire</w>":11959,"sandals</w>":11960,"anni</w>":11961,"grena":11962,"marching</w>":11963,"aback</w>":11964,"wrenched</w>":11965,"voted</w>":11966,"mechani":11967,"lesser</w>":11968,"creaked</w>":11969,"siren</w>":11970,"paws</w>":11971,"mirrors</w>":11972,"rumbling</w>":11973,"rebel</w>":11974,"fund</w>":11975,"receptionist</w>":11976,"episode</w>":11977,"sensible</w>":11978,"amara</w>":11979,"sales</w>":11980,"tentati":11981,"fidge":11982,"pleasantly</w>":11983,"bulous</w>":11984,"wiggled</w>":11985,"drenched</w>":11986,"mischiev":11987,"lighted</w>":11988,"warmly</w>":11989,"bodyguard</w>":11990,"jogged</w>":11991,"master":11992,"bradley</w>":11993,"beta</w>":11994,"hissing</w>":11995,"diso":11996,"appealing</w>":11997,"chilled</w>":11998,"betty</w>":11999,"premi":12000,"pirates</w>":12001,"pursue</w>":12002,"fearful</w>":12003,"denise</w>":12004,"contrary</w>":12005,"persi":12006,"chers</w>":12007,"tastes</w>":12008,"spectacular</w>":12009,"pointless</w>":12010,"cheered</w>":12011,"borrowed</w>":12012,"teenagers</w>":12013,"flicking</w>":12014,"depression</w>":12015,"boxers</w>":12016,"summon</w>":12017,"blindly</w>":12018,"anita</w>":12019,"wns</w>":12020,"denny</w>":12021,"wink":12022,"phine</w>":12023,"ventured</w>":12024,"tentatively</w>":12025,"smeared</w>":12026,"cupboard</w>":12027,"cigar</w>":12028,"tled</w>":12029,"sculp":12030,"perple":12031,"hyper":12032,"idance</w>":12033,"hardest</w>":12034,"baron</w>":12035,"parade</w>":12036,"fever":12037,"turkey</w>":12038,"dot</w>":12039,"recovery</w>":12040,"k.</w>":12041,"iris</w>":12042,"brightened</w>":12043,"quin</w>":12044,"onally</w>":12045,"latch</w>":12046,"nearer</w>":12047,"frankie</w>":12048,"deme":12049,"clench</w>":12050,"cheerfully</w>":12051,"standards</w>":12052,"rests</w>":12053,"antique</w>":12054,"tongues</w>":12055,"devi":12056,"colony</w>":12057,"yar":12058,"slacks</w>":12059,"pper":12060,"instrument</w>":12061,"blinded</w>":12062,"poised</w>":12063,"individuals</w>":12064,"hostile</w>":12065,"col</w>":12066,"interfere</w>":12067,"faithful</w>":12068,"mpering</w>":12069,"allen</w>":12070,"henri</w>":12071,"reverend</w>":12072,"consuming</w>":12073,"traces</w>":12074,"eyard</w>":12075,"dangerously</w>":12076,"ads</w>":12077,"thumping</w>":12078,"nuclear</w>":12079,"dimini":12080,"brennan</w>":12081,"garden":12082,"squirmed</w>":12083,"tical</w>":12084,"observe</w>":12085,"hs</w>":12086,"brenda</w>":12087,"hurled</w>":12088,"bathing</w>":12089,"reassured</w>":12090,"occur</w>":12091,"mole":12092,"greedy</w>":12093,"tilting</w>":12094,"bulk</w>":12095,"tingle</w>":12096,"stables</w>":12097,"lai</w>":12098,"ezio</w>":12099,"stful</w>":12100,"invasion</w>":12101,"holder</w>":12102,"ancestors</w>":12103,"smallest</w>":12104,"miri":12105,"strangled</w>":12106,"contest</w>":12107,"targets</w>":12108,"exterior</w>":12109,"emptiness</w>":12110,"wendy</w>":12111,"buckle</w>":12112,"admiration</w>":12113,"cannon</w>":12114,"shards</w>":12115,"obsessed</w>":12116,"hugs</w>":12117,"procee":12118,"phen":12119,"modest</w>":12120,"ilah</w>":12121,"ackers</w>":12122,"hurrying</w>":12123,"canopy</w>":12124,"altered</w>":12125,"softer</w>":12126,"pean":12127,"management</w>":12128,"celia</w>":12129,"moss</w>":12130,"contacted</w>":12131,"tremendous</w>":12132,"blunt</w>":12133,"scotch</w>":12134,"gladly</w>":12135,"collar":12136,"stinging</w>":12137,"screens</w>":12138,"complex":12139,"approved</w>":12140,"rejected</w>":12141,"tomb</w>":12142,"screeched</w>":12143,"scales</w>":12144,"butterfly</w>":12145,"hearted</w>":12146,"murders</w>":12147,"storms</w>":12148,"italy</w>":12149,"flaming</w>":12150,"absurd</w>":12151,"sunrise</w>":12152,"mind":12153,"inquisit":12154,"mass":12155,"appren":12156,"hooded</w>":12157,"topped</w>":12158,"spot":12159,"dignity</w>":12160,"acquired</w>":12161,"spared</w>":12162,"pops</w>":12163,"www.":12164,"risked</w>":12165,"strongest</w>":12166,"reckon</w>":12167,"cling</w>":12168,"seductive</w>":12169,"vlad</w>":12170,"royce</w>":12171,"blend</w>":12172,"univer":12173,"dos</w>":12174,"dawned</w>":12175,"oversized</w>":12176,"widow</w>":12177,"sier</w>":12178,"199":12179,"expe":12180,"absent</w>":12181,"twenties</w>":12182,"more":12183,"cheekbones</w>":12184,"lex</w>":12185,"cocky</w>":12186,"baked</w>":12187,"itim":12188,"expanse</w>":12189,"tear":12190,"seas</w>":12191,"hotter</w>":12192,"boiled</w>":12193,"longest</w>":12194,"weeds</w>":12195,"seventh</w>":12196,"fuckin</w>":12197,"deposit":12198,"delilah</w>":12199,"die":12200,"dill":12201,"searing</w>":12202,"niko":12203,"polish</w>":12204,"clara</w>":12205,"belongings</w>":12206,"schools</w>":12207,"irony</w>":12208,"cata":12209,"remnants</w>":12210,"kicks</w>":12211,"gely</w>":12212,"manufac":12213,"sailed</w>":12214,"symbols</w>":12215,"rattling</w>":12216,"pang</w>":12217,"lacked</w>":12218,"glas</w>":12219,"issued</w>":12220,"swamp</w>":12221,"presents</w>":12222,"gard</w>":12223,"denial</w>":12224,"strict</w>":12225,"adjusting</w>":12226,"smoked</w>":12227,"slashed</w>":12228,"thou</w>":12229,"pussy</w>":12230,"optimi":12231,"hmmm</w>":12232,"clayton</w>":12233,"looming</w>":12234,"bbery</w>":12235,"satisfy</w>":12236,"troubles</w>":12237,"vacu":12238,"open":12239,"pear":12240,"menacing</w>":12241,"unnatural</w>":12242,"costs</w>":12243,"beads</w>":12244,"izing</w>":12245,"units</w>":12246,"yna</w>":12247,"musical</w>":12248,"mortality</w>":12249,"legitim":12250,"197":12251,"intu":12252,"emerge</w>":12253,"beaming</w>":12254,"rifles</w>":12255,"meadow</w>":12256,"gate":12257,"bubbles</w>":12258,"strikes</w>":12259,"shark</w>":12260,"procedure</w>":12261,"newspapers</w>":12262,"bunk</w>":12263,"basha</w>":12264,"tack</w>":12265,"rented</w>":12266,"heroes</w>":12267,"effectively</w>":12268,"douglas</w>":12269,"bree</w>":12270,"rained</w>":12271,"treach":12272,"sample</w>":12273,"graduate</w>":12274,"certi":12275,"trance</w>":12276,"scrap</w>":12277,"tti</w>":12278,"halluc":12279,"dger</w>":12280,"infer":12281,"galaxy</w>":12282,"cec":12283,"stubble</w>":12284,"plea</w>":12285,"bedrooms</w>":12286,"interjected</w>":12287,"smoo":12288,"develop</w>":12289,"ushered</w>":12290,
[...]
